Ġ t
Ġ a
i n
h e
r e
o n
e r
Ġ s
Ġt he
a t
e n
Ġ w
o r
Ġ c
o u
e s
i t
a n
Ġ Ġ
i s
Ġ p
Ġ f
Ġ b
in g
Ġ o
Ġ d
Ġ m
Ġa n
a l
e d
a r
Ġt o
Ġ in
Ġan d
l e
Ġo f
i c
a s
Ġ h
o m
i on
Ġt h
Ġ l
â Ģ
en t
i l
e l
Ġ n
s t
e t
r o
Ġ y
Ġ re
Ġ e
Ġ g
Ġ I
ĠĠ ĠĠ
c t
v e
Ġy ou
i d
Ġ T
Ġ S
o t
Ġ is
Ġ u
i m
o w
a d
l y
a c
a m
Ġf or
Ġ on
Ġb e
o l
a y
Ġ A
i g
Ġ C
u t
s e
v er
u r
Ġs t
Ġth at
at ion
c h
it h
âĢ Ļ
i r
Ġ M
Ġ he
c e
Ġ it
Ġw ith
Ġd e
Ġ P
u l
Ġa l
i f
Ġ B
t er
n d
r a
Ġa s
q u
Ġc on
Ġw h
o d
il l
ou t
Ġp ro
a g
Ġ v
es t
k e
e m
er s
u s
Ġw e
Ġ D
Ġa re
o s
p p
r i
a b
Ġ W
es s
u n
Ġ H
Ġc om
he r
an d
Ġh a
at e
o re
ou r
Ġ F
Ġ or
l d
u m
Ġ R
is t
an t
Ġs e
or t
o p
Ġa t
h t
ĠT he
Ġn e
Ġ r
Ġ L
re s
Ġe x
i e
r om
Ġw as
Ġ E
o c
Ġ G
Ġyou r
ar t
n t
Ġs u
m ent
ĠĠĠĠ ĠĠĠĠ
it y
Ġ N
e ct
u st
a in
Ġha ve
Ġth is
en d
Ġn ot
Ġ le
Ġc an
i v
t h
Ġs h
i ve
2 0
i es
Ġc h
ig ht
Ġf rom
Ġ j
Ġ k
ou ld
Ġb y
Ġ O
el l
o st
ar d
al l
om e
in e
u d
re d
Ġd o
Ġa b
o o
p t
Ġ en
al ly
Ġp l
ac k
p e
g e
Ġw ill
a k
Ġ qu
Ġm e
Ġal l
id e
as t
u re
Ġw or
r ou
p er
Ġ J
p l
t e
Ã ©
ĠĠ Ġ
in d
o g
f f
i al
Ġg o
a re
he n
ic e
i z
Ġu n
Ġu s
Ġt r
ic h
Ġb ut
on e
ion s
e ar
ag e
Ġs o
âĢ Ŀ
T he
âĢ ľ
Ġa d
oo k
Ġm y
ab le
Ġ U
i a
Ġ out
i p
a ke
ou s
am e
> >
an s
t her
< <
Ġh as
u e
Ġthe y
Ġ im
Ġcom p
g h
Ġu p
a ct
im e
. .
Ġc l
on g
c c
or m
i b
ver y
Ġm ore
it e
at ed
a p
as s
Ġthe ir
ĠT h
0 0
u b
ĠI n
s o
Ġ K
Ġon e
i re
t o
ac e
i ke
Ġcon t
e p
c l
a u
an ce
ul t
a v
Ġab out
Ġh is
Ġm an
r y
d u
a il
k s
Ġ Y
b er
Ġ V
ac h
as e
Ċ ĠĠĠĠĠĠĠĠ
Ġs p
i le
Ġp er
Ġre s
Ċ ĠĠĠĠ
ig n
- -
Ġt e
Ġ if
Ġf e
l l
Ġ our
Ġwh o
Ġa pp
ation s
Ġl a
Ġhe r
ĠS t
re at
r u
Ġg et
M A
n e
e re
Ġs a
ar y
ct ion
v en
Ġwh ich
ent s
n ow
ic k
el y
f orm
on d
ay s
Ġd is
en s
or d
Ġs ome
Ġof f
G E
Ġo ther
âĢ ĵ
Ġt ime
in t
res s
ic al
ĠI t
Ġl ike
Ġan y
en ce
re e
p ort
Ġp e
Ġthe m
ou nt
Ġal so
er v
o ve
Ġd es
Ġh ad
Ġa r
o v
ing s
Ġp art
I MA
IMA GE
Ġa g
20 1
Ġne w
ar k
Ġthe re
o b
Ġw ould
o se
Ġwor k
Ġp re
Ġw hen
ĠC h
Ġwh at
it ion
in k
v el
Ġs c
an g
c k
or s
Ġj ust
Ġwe re
Ġ ro
Ġo ver
Ġy ear
Ġbe en
l ic
il d
Ġa m
ur n
Ġk now
Ġre c
Ġu nd
Ġn o
Ġp r
1 9
Ġth an
Ġne ed
ĉ ĉ
ou nd
o od
ver s
op le
) ;
on t
ow n
Ġb l
Ġh ow
Ġbe c
Ġs he
or y
Ġa cc
o y
is h
Ġin to
w n
an c
ad e
he re
u al
ol l
er t
at er
m er
x t
on s
) .
Ġpe ople
ol d
f t
it t
1 0
el f
w e
ir st
if f
Ġit s
f ter
ĠW e
au se
e c
Ġl ook
ĠH e
l p
p le
g et
Ġb et
ig h
Ġcom m
Ġa ct
i an
i ous
Ġm ake
u ch
pe c
ie w
f ul
he d
Ġp o
Ġm ay
Ġ z
j ect
ter n
et h
Ġw ant
Ġin d
cl ud
Ġe m
Ġhe lp
g r
ĠTh is
Ġon ly
Ġad d
Ġf l
Ġc o
is s
n ing
Ċ ĠĠĠ
Ġb ack
is e
Ġu se
Ġsa id
p h
Ġt w
Ġcon s
at es
rou gh
i o
Ġb u
ou gh
T h
if ic
en c
Ġm ost
Ġe very
Ġse e
e f
rou nd
* *
oc k
Ġc ould
at h
Ġ Ã
l es
le ct
) ,
i ent
Ġf irst
at ing
Ġd iff
ä ¸
re n
r ic
Ġpro v
Ġw ell
I n
ĠY ou
Ġpro du
Ġthe se
ro w
at a
Ġd i
t y
Ġth rough
s s
Ġat t
âĢ Ķ
os s
ers on
Ġd on
y st
e w
Ġ el
E N
Ġsu pp
Ġc he
Ġh im
t ing
r it
Ġre l
Ġp h
ment s
i k
Ġsh ould
Ġb r
c ess
v ent
i er
Ġund er
ĠR e
p ect
Ġ ke
Ġt ra
Ġw ay
b s
Ġas s
Ġin c
Ġgo od
if e
Ġre g
ot h
Ġd id
it ies
Ġc ol
Ġ very
Ġe ven
Ġs erv
Ġthe n
Ġ ent
er m
b le
Ġ i
Ġin clud
ul l
y s
ib le
ic es
u p
il y
Ġs m
em ent
a z
Ġtw o
Ġre t
Ġn ow
Ġre m
al s
Ġa fter
20 0
ĊĠĠĠĠ ĠĠĠ
om m
ol og
C O
f ore
Ã Ń
Ġman y
. \"
Ġf in
an ge
Ġth ink
d ay
Ġm uch
en er
u nd
o ol
ak ing
it s
il ity
ĠP ro
Ġa c
Ġbec ause
u res
Ġqu e
i ed
ul ar
/ /
Ġw here
ĠW h
Ġg r
Ġpl ay
Ġg u
Ġ et
Ġex per
l ine
Ġs et
in ess
ra ct
Ġto o
Ġst ud
Ġr ight
al e
ow er
ĠU n
âĢ ¦
ĠA nd
yst em
Ġd own
Ġim p
Ġin st
n g
20 2
Ġin v
iz e
an y
Ġyear s
Ġst art
g ht
as ed
Ġs ur
Ġg reat
t s
Ġl ong
w ard
he s
Ġin t
ub lic
Ġe ff
Ġse c
Ġp erson
an k
e k
Ġre ad
Ġa v
1 2
EN T
u g
Ġf ind
i ence
id ent
Ġd el
Ġb est
ri b
al th
-- --
i x
Ġde c
a x
Ã ¡
a h
p r
ot her
Ġo wn
Ġm od
Ġin s
Ġ est
pt ion
.. .
Ġdiff ere
Ġc ar
n er
ic s
e x
ation al
Ġp ar
g an
Ġdo es
or k
a ir
Ġsu ch
Ġb us
in s
ur ing
Ġhe re
Ġag ain
d er
Ġo p
M M
ĠI f
h ip
ri v
ar ch
ic t
Ġm in
Ġh and
as h
Ġt ake
u ally
Ġs pec
Ġb el
Ġde f
Ġ es
Ġh igh
Ġst r
Ġm on
w ay
form ation
Ġ end
vel op
i el
c om
Ġs im
Ġbe fore
. âĢĿ
at ive
_ _
Ġre qu
Ċ Ċ
Ġd ay
Ġbe ing
Ġp res
at ch
am p
c es
ã Ģ
a ve
CO MM
Ġs om
Ġtr ans
COMM ENT
Ġth ose
al k
Ġm ed
ark et
un g
re ad
qu e
Ġm ade
u es
oll ow
Ġc re
le t
Ġ ra
Ġs l
e ver
it ed
1 5
ĠA l
ar m
S t
Ġin ter
Ġc all
Ġl oc
Ġre ally
= =
b e
Ġs er
Ġf un
Ġus ed
c on
Ġn um
Ġd et
l ed
s elf
u c
Ġsh ow
Ġex t
ch n
Ġfor m
Ġf am
Ġa ut
Ċ ĉĉ
Ġg l
v iew
t en
Ġre al
ĠA n
in es
ar n
Ġl ife
W h
n ce
Ã ¤
3 0
an n
1 1
Ġo b
Ġc ur
Ġsu b
Ġt y
er n
gr am
Ġar t
ĠS h
Ġin te
Ġwor ld
Ġdis c
Ġh ome
as on
Ġs k
ç ļ
od e
ar g
i et
in ce
Ġgo ing
Ġv al
ĠD e
Ġs ystem
Ġwh ile
ĠB ut
at her
ag es
el s
W e
ar s
Ġbus iness
Ġv is
Ġst ill
ire ct
Ġdiffere nt
çļ Ħ
Ġp ost
rou p
o ad
Ġp ol
re st
Ġa round
Ġs ay
ak es
Ġprodu ct
Ġex p
ch ool
Ġb o
ĠA r
iv es
c ed
1 8
Ġf ollow
n ess
ou se
Ġcon f
Ġim port
im es
Ġde velop
Ġin f
ĠA s
re t
Ċ ĉ
ĠF or
Ġre f
ĠL e
Ġv ar
i Ã
od y
a j
I t
us s
Ġc or
Ġl ast
Ġs ame
ust om
Ġc are
Ġs ign
Ġe ach
ol ut
Ġin formation
Ġpo int
( )
w ays
ĠS e
we en
ĠC l
am es
Ġe as
Ġ ed
Ġm em
Ġret urn
b r
Ġl ove
Ġsupp ort
ou ght
ä º
re nt
Ġdes ign
ri end
a w
Ġre p
g g
Ġl ot
Ġfe el
Ġl ist
ĠThe y
it al
Ġe v
Ġc our
ĠA d
Ġc ount
Th is
Ġf r
ĠN ew
Ġc le
Ġha pp
ion al
itt le
is m
iz ed
Ġpro f
Ġbet ween
Ġ Z
th ing
y m
eth ing
a ut
a it
Ġ Q
Ġpro cess
id er
Ġp ublic
et s
Ġb ook
l and
r ing
at t
Ġm arket
Ġth ings
Ġle ad
Ġd ata
Ċ Ġ
Ġch ild
Ġg ener
Ġde p
Ġb oth
Ġf ound
Ġfe w
y ing
ut e
ant s
l ess
5 0
Ġp oss
E R
Ġres ult
i vers
Ġc r
ru ct
Ġcomm un
ce pt
Ġf ree
ter s
Ġcl ass
at ure
Ġp at
Ġpl ace
le ase
Ġcom e
Ġqu est
Ġus ing
Ġhe alth
1 6
Ġke ep
ĠC om
Ġto p
v ing
a pp
Ġf act
i red
Ġ er
Ġsom ething
Ġle t
ä »
Ġte am
ro p
Ġr un
ãĢ Ĥ
o h
Ġf il
ĠS he
iel d
e red
o k
ĠH ow
ĊĠĠĠĠĠĠĠĠ ĠĠĠĠ
ĊĠĠĠĠĠĠĠĠ ĠĠĠĠĠĠĠĠ
Ġres p
c he
ĠP l
âĢ ĺ
en g
a red
Ġp ur
m e
al ity
or n
Ġl ittle
1 4
ĊĠĠĠĠĠĠĠĠ ĠĠĠ
ro ss
ĠB l
Ġpro gram
ou n
Ġp ass
Ġbet ter
I N
Ġprov id
Ġs oc
Ġpart ic
Ġcon st
in ed
ĠThe re
t on
Ġm ight
, âĢĿ
Ġre st
Ġad v
st and
ĠS o
Ġ ide
ble m
olog y
Ġal ways
en se
ic ally
Ġon line
Ġd ist
Ġm ust
Ġsu re
, \"
Ġte chn
1 3
Ġop en
Ġwith out
Ġm ain
in a
Ġt est
Ġhe ad
c i
00 0
at or
ĠB e
u ck
Ġmon th
in ing
o ver
Ġne ver
Ġc as
ĠT r
Ġg ot
Ġc ustom
Ġp ay
Ġeff ect
Ġcont in
g y
ail able
ro l
ĠE x
Ġp ut
ar ly
m an
Ġp os
at ur
Ġm et
p ar
Ġex am
ar ge
er y
ow s
ist s
Ġw r
Ġpl an
ort h
Ġimport ant
Ġwe ek
Y ou
ĠÃ ł
R e
o ot
o id
ert ain
mer ic
v ed
Ġd uring
l ing
Ġde m
one y
er ing
n ect
iv ing
z e
Ġth ree
w are
Ġpro blem
Ġc ent
d e
Ġinte rest
at s
Ġor gan
i ally
Ġan other
Ġas k
Ġis s
Ġsm all
Ġnum ber
b ers
v es
i ents
Ġw om
Ġw ater
1 7
re en
Ġd ie
2 5
Ġh ard
Ġf riend
Ġbu ild
Ġpro t
Ġs it
ot e
Ġinc re
Ġb ig
Ġg ame
Ġst and
Ġex pl
Ġne xt
Ġg roup
! !
t he
Ġt urn
ĠC on
is hed
pl oy
Ã ¶
Ġre port
Ġexper ience
a i
op e
Ġt ri
re am
iv id
i en
I f
1 00
cc ess
Ġst at
Ġs ince
ĠT e
Ġd irect
r ist
Ġd er
Ġav ailable
ra ph
ĠI nd
Ġl es
Ġm ov
Ġcomp any
\" ,
ĠO n
Ġpro ject
Ġo ld
Ġfam ily
Ġg ive
Ġle vel
i que
i or
o x
Ġs pe
at ely
w ork
e e
in al
Ġm us
c ri
ur s
Ġc a
Ġc ost
Ġsec ond
u f
ĠA meric
Ġn on
2 4
p ro
Ġth ought
our s
c ent
Ġb re
Ġab le
ot t
** **
ĠT o
Ġs chool
ĠF r
Ġb ro
em ber
Ġre ce
is ion
Ġse em
r on
in o
ĠI s
Ġle g
Ġp ower
Ġo pp
Ġb en
o f
Ġ ve
ĠS p
Ġh um
Ġ ver
r al
ĠTh at
Ġc ase
ĠA ll
p s
Ġinclud ing
Ġinv est
Ġl ess
Ġper form
ĊĠĠĠĠ Ġ
ard s
o int
: :
ir d
Ġserv ice
Ġm at
Ġbel ie
i um
Ġth ing
Ġwor d
c o
Ġc ap
Ġa way
ĠO r
Å Ĥ
ab ly
Ġdid n
us h
Ġe qu
ĠP h
Ġd ays
O N
Ġg row
Ġa ff
Ġp op
Ġs al
i j
enc y
m in
Ġman ag
o or
Ġwh y
Ġt em
Ġf ull
Ġn ame
ĠS c
Ġor der
Ġcur rent
un e
s h
Ġagain st
Ġin tern
m ed
Ġb as
b y
Ġl ight
g er
Ġl o
ent ion
Ġapp ro
are nt
R E
---- ----
p os
Ġo per
Ġs elf
ain s
ent ly
f ect
ill s
Wh at
Ġu nt
y n
Ġacc ess
s c
p ut
g in
Ġm oney
ĠA t
ĠU S
Ġbe h
Ġk ind
Ġwith in
i pp
Ġunder stand
an e
Ġp rom
- >
Ġact iv
Ġo pt
Ġwe bs
Ġpro per
A T
ic le
Ġprov ide
iz ation
= \"
h or
ort un
Ġm aking
Ġst ate
ĠR es
Ġadd ition
H e
Ġw in
Ġs w
if ied
Ġre se
our ce
Ġex c
u x
S T
s p
Ġcomp le
Ġan n
Ġen g
Ġp ot
Ġf ac
out h
en n
Ġde v
le ction
Ġch ar
j oy
ab ility
Ġlook ing
ill ion
iss ion
C h
Ġ il
a f
Ġch ange
Ġv ide
ent ial
Ġserv ices
Ġp a
um p
ir on
Ġj ob
um ent
Ġch ang
iv en
ĠWh at
u ro
u ff
ivers ity
å ı
am ent
ĠC ol
A s
Ġs ol
u se
d en
l i
p or
Ġe y
r ation
is ed
Ġt erm
Ġla w
Ġpres ent
Ġm ar
Ġv iew
Ġf ood
I D
Ġr is
Ġm en
Ġsa f
Ġwork ing
u red
or ies
ver n
Ġro om
Ġm om
g o
oc i
Ġcour se
r or
ri es
2 2
( \"
Ġb it
Ġex pect
ra w
ĠM an
Ġcon d
ail s
Ġme et
P ro
Ġd u
Ġ vers
Ġche ck
ĠN o
Ġ Ã©
< /
v al
ad a
it ions
Ġh ist
Ġb ody
Ġs ite
eth od
an ks
read y
ra p
end ing
ot s
ĠW hen
ĠP r
Ġp ast
. ,
id s
e b
Ġt ell
ir l
Ġp ract
Ġall ow
Ġacc ount
l oad
iet y
è ¿
Ġen ough
Ġc ertain
Ġs ing
ar ing
if t
m a
Ġt alk
Ġc e
Ġd r
Ġto day
Ġimp ro
æ ľ
Ġunt il
Ġme an
å ¤
Ġha ving
Ġapp lic
Ġle arn
ĠA m
as ter
Ġspec ial
Ġcon nect
Ġp riv
ad o
o ice
4 0
Ġl ine
ater ial
Ġcon c
Ġact ually
ĠW ith
Ġm ind
in ation
ĠC omm
Ġind ivid
re m
oc us
ĠG od
' ,
Ġd ri
Ġs ide
ac y
anc es
v ious
Ġtr y
ĠG r
Ġprof ess
Ġprot ect
l ish
Ġt imes
du ct
Ġof ten
Ġp ain
Ġare a
Ġl ik
ut es
Ġe vent
Ġchild ren
Ġgo vern
Ã ¨
Ġto get
Ġtoget her
Ġal ready
Ġph ot
Ġposs ible
el t
Ġe ver
Ġc ou
ĠCh rist
Ġd one
Ġloc al
Ġen joy
ne w
Ġle ft
it ive
Ġsoc ial
Ġw rit
y le
Ġc reat
Ġth ough
ar l
t ain
s et
Ġt reat
n a
Ġm akes
s on
ĠE n
iv ely
at ures
A R
ate g
i ver
f or
Ġw he
b l
Ġn ight
ĠA pp
at ic
ĠS u
Ġvis it
ĠM y
Ġs ays
olut ion
Ġl os
Ä Ļ
o pp
Ġh ouse
A n
Ġm ove
Ġsu ccess
ord ing
Ġf ar
Ġem ploy
Ġs i
ĠF l
Ġa ir
H ow
Ġben ef
le g
Ġeas y
Ġind ust
Ġget ting
Ġdo ing
av or
Ġm ult
Ġl im
19 9
F or
Ġty pe
ne y
le y
Ġel se
s ide
ur y
ĠM ar
Ġcre ate
Ġneed s
Ġan al
Ġdoes n
ĠC an
A N
Ġf our
Ġre view
Ġwebs ite
Ġal ong
Ġ x
ra g
n ot
ĠB r
Ġfollow ing
e ad
Ġty p
Ġsh ort
L E
2 1
Ġstud ents
Ġm il
2 3
Ġindivid ual
Ġcont rol
and s
Ġproduct s
Ġ X
Ġme ans
Ġcons ider
it her
Ġoff er
Ġval ue
end ed
iv ed
os ed
Ġother s
Ġo cc
s w
if y
Ġen c
Ġperson al
Ġtr ad
at o
in c
m s
is c
ĠM ay
a is
Ġe lect
is ter
v iron
am b
Ġl arge
a ff
Ġbec ome
con om
ere nce
ĠC ent
ac es
f l
id es
? \"
Ġse ver
Ġan t
å ľ
Ä ĥ
Ä ħ
z y
I T
ip s
Ġwom en
Ġc al
Ġf ut
f er
en e
ro ll
aj or
h ing
ĠE ng
Ġl ive
o le
Ġle ast
Ġqu ality
a im
Ġb ased
Ġfun ction
Ġf ace
Ġso ft
6 0
E x
A nd
c le
Ġqu ick
Ġper fect
The re
Ġexam ple
__ __
ort s
a pe
c hed
ra in
O R
Ġhapp en
s el
b ack
al f
Ã© s
ap s
Ġl ow
Ġrese arch
Ġon ce
Ġto t
Ġst ory
Ġpro b
Ġcall ed
Ġinclud e
Ġf ocus
oh n
i qu
m ost
t r
C on
Ġj e
Ġcom es
os p
Ġh old
Ġbe aut
le ment
ic i
Ġn et
ar r
Ġf ore
w h
er c
Ġv ol
y l
Ġcommun ity
æ ĺ
Ġsever al
on es
Ġs on
å ħ
um m
Ġac ross
le v
Ġre ason
Ġt re
as k
it or
Ġke y
ĠUn iversity
Ġc ame
ĠIn st
ir t
ĠC o
Ġspec ific
Ġst ep
Ġd en
oo se
ul ation
Ġrequ ire
ĠM ed
ĠD o
Ġ ident
Ġsu per
u ed
rib ut
ro om
Ġf und
ĠC ont
Ġcount ry
Ġre du
Ġsome one
Ġbl og
b o
ur ity
Ġbu y
Ġwor ks
Ġvide o
ĠN e
m ber
Ġtr ue
( );
ore d
d d
Ġy et
ward s
is ing
z a
ic a
A L
u ly
res ent
Ġp ort
T o
) :
act er
Ġm aterial
ĠQ u
it er
ĠThe se
Ġf re
å Ĳ
enc es
ĠM e
Ġhe art
Ġe in
Ġpartic ular
C l
y pe
ic y
æ Ī
Ġs ound
ur ther
our ces
Ġtoo k
Ġde al
ver t
b ook
Ċ ĠĠ
Ġp our
ĠHow ever
Ġcont act
Ġpr ice
Ġcomp let
Ġstart ed
Ġor ig
Ġun a
Ġh ig
Ġhum an
å Ī
Ġrec ord
Ġm ethod
et er
Ġm ajor
ĠY our
2 8
Ġany thing
viron ment
Ġed uc
Ġm ot
Ġp ress
ore s
Ġm ess
Ġmem bers
Ġopp ortun
Ġevery thing
Ġen er
Ġc amp
g le
ur ch
Ġquest ion
2 7
c hes
ak en
as es
Ġg ames
Ġw on
Ġfut ure
ĠI m
Ġ ess
og raph
ag n
Ġp age
A l
Ġyou ng
if ul
pl ay
Â »
Ġto ol
Ġse ason
p re
Ġp ack
i od
B ut
Ġoff ic
2 6
Ġstr ong
ĠS te
Ġw ent
am s
Ġl ov
Ġg iven
Ġcom b
Ġl og
Ġu t
Ġwe b
Ġmonth s
Ġdevelop ment
ĠR ep
Ġpre t
atur al
c rib
Ġbr ing
p ly
Ġbe gin
ĠO ne
Ġcont ent
Ġrel ations
b re
ar i
Ġsp ace
Ġw ond
Ġfriend s
Ġit em
Ġh ours
il t
Ġh ot
Ġt er
Ġd ue
Ġen s
Ġinv ol
Ġbre ak
Ġide a
te xt
um e
Ġc ut
ct or
Ġl and
Ġw alk
ra ft
ric t
ĠG u
Ġse en
E S
ĠD es
u ation
Ġw ind
Ġdisc uss
Ġpar a
Ġst e
ab or
re g
Ġgovern ment
ĠA ss
Ġl ater
ir m
Ġbelie ve
h a
id ence
Ġd ig
Ġst ay
ĠS erv
ä¸ Ģ
ar ning
Ġsh are
Ġresult s
pec ially
Ġwho le
Ġcomp an
Ġa p
ic ult
il ities
ĠN ot
Ġp or
W hen
Ġf ield
un ch
ad d
Ġp ie
ight s
il i
ver age
Ġj o
an a
Ġd ou
u le
ib ility
Ġam ount
ĠC O
Ġstud y
n ers
Ġc ult
er al
ĠC he
Ġse x
ĊĠĠĠĠĠĠĠĠĠĠĠĠ ĠĠĠ
o on
== ==
Ġb ad
å ®
a ult
# #
Ġh ope
is on
Ġp ri
ff ic
2 9
Ġmom ent
l er
ur al
Ġe conom
ab les
cri ption
Ġrec omm
Ġknow n
Ġcle an
f ort
Ġm or
Ġbel ow
Ġch all
Ġc red
Ġd oc
pl es
ĠC ar
g s
il ar
g en
ill ed
ub l
Ġcomm on
Ġm illion
le x
it es
art ment
y ch
st r
Ġab ove
Ġresp ons
im ent
t ime
og n
Ġph ys
Ċ ĊĠĠĠ
o ber
Ġs ize
Ġto ld
Ġg irl
Ġsing le
Ġs ent
ress ion
ĠAmeric an
S o
ob al
ĠL a
l t
Ġcomp et
Ġw atch
Ġte xt
A S
Ġt aking
âĢ ¢
Ġfin anc
A C
ar get
Ġc ity
Ġtr ying
Ġfin al
Ġmus ic
Ġsim ple
Ġv i
Ġapp ear
Ġmin utes
Ġwhe ther
Ġe arly
ri ed
Ġpur ch
er a
Ġmod el
our n
Ġab s
cl us
Ġadd ress
ific ation
Ġf all
Ġc ard
or ld
Ġl as
å °
ĠIn tern
ful ly
ĠE m
Ġre pl
Ġag o
Ġc ell
ou d
Ġn a
Ġex ist
Ġb ed
Ġsign ific
I C
im ate
ĠA b
Ġsu gg
r ay
Ġe ither
i res
Ġd a
Ġevery one
Ġcom pl
re w
c er
Ġh y
et t
Ġpol it
ĠJ ohn
ĠE l
th ough
Ġpriv ate
C om
Ġup d
ic ation
Ġsugg est
ĠE uro
Ġindust ry
Ġquest ions
Ġiss ues
Ġprob ably
O n
) )
Ġfe atures
ir c
Ġwant ed
im port
æĺ ¯
Ġfr ont
Ġpr im
sel ves
Ġun e
Ġam ong
ad es
it ch
id d
re et
S h
Ġg en
Ġal most
ang u
f ace
op s
on se
Ġf avor
Ġqu ite
Ġpl us
Ġne cess
* /
Ġp arent
ĠM in
Ġm ach
ic ht
Ġme as
us ed
Ġrelations hip
Ġr ange
Ġt ax
Ġw ait
Ġb ar
Ġper iod
Ġmed ia
Ġener gy
Ġre d
le ge
Ġaut hor
ĠP er
Ġcompan ies
k t
Ġc rit
ic ro
Ġdef in
Ġt able
Ġinst all
Ġd am
ud e
Ġimpro ve
Ġis n
am a
as ing
her s
Ġse arch
Ġbl ack
Ġd Ã©
Ġp ick
Ġm iss
8 0
ain ed
Ġask ed
Ġde b
Ġan sw
un t
Ġent ire
led ge
Ġv an
Ġnot hing
Ġpret ty
Ġneed ed
s er
g ed
ell ing
he ad
r s
t t
Ġbeaut iful
ĠĠĠĠĠĠĠĠ ĠĠĠĠĠĠĠĠ
at form
end s
ro wn
Ġey es
av ing
ch ie
ur ance
au gh
re ct
Ġin it
Ġen vironment
I S
b all
res h
Ġinf l
Ġvar ious
ce ption
Ġcol or
Ġl arg
Ġyour self
Ġes pecially
Ġob ject
Ġh alf
Ġa ud
st er
ro du
Ġcl ose
ul es
on y
Ġcl aim
il le
Ġl at
at ors
Ġo il
ĠG l
ant e
E D
ĠC al
Ġris k
ion e
Ġl ink
al t
3 2
Ġlik ely
Ġg e
Ġhist ory
Ġword s
Ġdiff icult
act ion
Ġn orm
end er
w here
Ġsim ply
ic o
.. ..
Ġw ays
ĠO ur
ib r
Ġpartic ip
Ġexper i
Ġp ict
U n
Ġf ive
Å Ľ
Ġart icle
id ay
Ġt ou
Ã §
Ġnew s
9 9
ĠP ol
c ome
Ġf urther
Ġtra vel
( '
Ġoff ers
ĠS ch
Ġcle ar
Ġa ge
ĠUn ited
Ġse lect
Ġpos ition
Ġd om
Ġbuild ing
A r
ĠCom p
ĠP art
in ks
it ing
Ã ¥
Ġtechn ology
æ Ĺ
Ġext ra
Ġcustom ers
Ġhow ever
Ġso on
ĠA fter
Ġtr ack
/ >
al es
g ing
it ut
o e
Ġopt ions
ens ive
ac c
Ġimp act
c hen
Ġp lease
3 5
Ġmat ter
Ġrequ ired
Ġtra ining
is es
Ä Ľ
ru ction
Ġser ies
Ġs le
Ġst ruct
ĠP e
id ed
Ġp as
ast ic
ob ile
Ġr ather
**** ****
um b
a ur
ð Ł
Ġem ail
å Ľ
Ġcom ing
Ã ł
Ġc oll
Â «
Ġne ar
Ġmanag ement
m y
et y
Ġdet erm
Ã £
Ã ª
Ġcl os
c y
Ġc ook
k en
Ġsignific ant
ĠT w
ĠH is
Ġet c
ĠS ec
ach ing
om es
Ġs at
Ġh ost
ell a
Ġne g
ĠEuro pe
u i
ĠK e
Ġcomp ut
Ġreg ard
itt ed
ĠP ar
Ġwrit ing
Ġf ile
ĠD r
ip le
eng th
Ġwh ite
Ġper cent
Ġbeh ind
Ġcomple te
Ġn atural
4 5
Ġs ens
Ġd est
Ġcom ment
ition al
es e
Ġqu i
Ġac cept
ĠE d
Ġass oci
oo gle
e ks
Ġt aken
op y
Ġcontin ue
Ġdo or
Ġl iving
Ġpat ients
ĠC ount
ĠRe g
Ġpop ular
Ġincre ase
et imes
Ġd ans
ĠJ an
g ress
min ist
Ġperform ance
Ġiss ue
Ġf ig
Ġs ym
ĠJ ust
i am
Ġch oose
R es
and o
ĠI nt
è ¯
Ġchar acter
ĠD ep
um mer
med i
th is
ĠS ome
Ġsim ilar
Ġfor ward
Ġst op
Ġadd ed
Ġprovid es
Ġv ia
Ġm it
ĠS m
c ial
Ġp ers
ĠM ore
Ġf ail
ic ated
uf act
Ġfil m
Ġs il
Ġs us
Ġass ist
Ġgener al
M y
ĠC ity
Ã£ o
ĠSt ate
Ġvers ion
Ġst yle
itt ing
9 0
h r
W ith
Ġl oss
iz ing
anc ed
7 0
Ġw ar
k a
Ġa ction
ĠG e
Ġare as
im al
n ov
A M
ĠB y
Ġsk in
Ġproblem s
Ġpoint s
Ċĉĉ ĉĉ
Ġwe ight
Ġins ide
Ġex act
o ff
a pt
Ġhig her
n y
u ge
id a
u ild
Ã© e
ie f
ke y
T r
Ġres pect
Ġpr int
Ġ â
Ġtot al
Ġread ing
Ġrequ est
åľ ¨
Ġwas n
Ġw orth
Ġo bs
Ġcol lect
Ġpre vious
Ġrep resent
ä¸ į
Ġus er
ro s
ĠR ec
em ic
itt en
Ġlong er
O T
Ġph one
Ġt it
Ġcons um
ys is
. )
19 8
Ġseem s
N o
ĠA ug
Ġany one
em pt
pp ed
ear ch
ar a
Ġaut om
Ġs n
Ġbr and
Ġsa w
ac ed
u el
Ġf a
Ċĉĉ ĉ
Ġar g
Ġwond er
ac iÃ
Ġus ually
Ġpl atform
Ġsoft ware
A ll
g es
Ġf oot
Ġo ption
ĠSt ud
ut h
he l
Ġa w
Ġchang es
op h
ĠP res
C ont
äº Ĩ
ĠH er
ĠN ow
Ġfinanc ial
ed d
Ġde ath
g round
am m
ere n
3 1
Ġm o
ĠS chool
Ġf ast
Ġa u
Ġa chie
ĠAd d
ĠY ork
Ġh on
Ġprofess ional
iv al
art h
at ory
Ġr ate
Ġoff ice
Ġsec urity
p o
an o
ent al
Ġm ass
Ġle ave
Ġh ab
Ġhand s
re l
Ġl ay
re f
ess ion
ĠAr t
ĠC or
Ġtreat ment
Ġcan not
Ġs we
Ġim m
ĠHe alth
us es
Ġus ers
n ame
Ġsub ject
Ġg ra
at ter
Ġd ate
Ġu r
] .
et te
Ġout side
Ġro le
il s
Ġmy self
Ġs ense
az ing
pr il
æ Ŀ
j ust
ec ut
Ġde ep
Ġconc ern
ag er
ĠD on
Ġun ique
Ġha ir
P h
ail y
Ġg round
l a
Ġest ab
Ġpa per
en ing
Ġf ire
Ġapplic ation
Ġle arning
Ġdet ails
Ġk ids
Ġev ents
z en
Ġt arget
u y
Ġde g
Ġr ad
Ġt akes
Ġcre ated
Ġco ver
ove red
U S
ens ion
ĠA ct
Ġsystem s
ÃŃ a
Th at
Ġpot ential
it ter
Ġb ott
Ġknow ledge
ĠA g
i os
ect ion
Ġbo x
Ġc ause
u it
ĠW orld
Ġhapp y
Ġproper ty
Ġcom fort
c ast
pt ember
Ġp ath
Ġlook s
\" >
cri pt
Ġsaf e
Ġst aff
ĠW ill
Ġbl ood
äº º
Ġdis e
angu age
D e
r am
R O
n es
Ġspe ak
im um
Ġp le
Ġcas es
Ġth ird
c ing
Ġcou ple
I ON
Ġup on
Ġf ul
Ġens ure
e es
Ġf elt
Ġread y
ĠA f
ĠM c
ĠN ational
Ġwe eks
Ġc ode
n o
Ġprovid ed
Ġ ill
Ġrun ning
ĠB o
Ġrec ogn
S e
Ġ ri
Ġ ou
Ġacc ording
Ġz u
ĠP a
ĠSt ates
ĠA ut
-------- --------
A D
3 6
Ġst ore
Ġc irc
Ġqu al
ag ing
k y
G et
Ġper m
Ġp an
al se
ag ement
Ġh or
Ġe p
ĠB ar
Ġc am
ĠO f
Ġwom an
Ġf it
ĠT ra
Ġd at
Ġs ch
å į
= >
i pe
ac hed
ret urn
Ġc oun
Ġs ix
ĠA ust
g l
p ose
Ġquick ly
iv ity
âĢĿ .
N ame
pp er
T e
ed s
Ġdown load
t a
B y
ain ing
il es
Ġin form
ä» ĸ
ĠO ct
Ġwr ong
A P
ĠS outh
b or
Ġb ase
Ġb al
Ġdes crib
Ġlook ed
ab y
Ġreg ular
ĠF in
Ġinst ead
ic les
u ary
Ġplay ers
Ġro ad
ple ment
Ġm ag
c ol
ist ic
Ġset t
Ġm ention
Ġv ot
Ġs em
L L
Ġcred it
E n
Ġk new
Ġc y
Ġt en
Ġshow s
E T
Ġrem ember
r is
Ġeng ine
Ġinclud es
Ġcont ract
in ter
olut ions
ĠM on
Ġeas ily
m on
Ġatt ack
er o
Ġdesign ed
Ġaff ect
ĠV al
ĠO ff
b ased
Ġon es
Ġnet work
Ġco ol
ep end
h ib
Ġpre vent
ab el
Ġgrow th
av es
er ve
Ġrec ent
Ġd ru
Ġn ice
Ġhe ld
Ġpart y
] ,
nd er
Ġhe av
Ġw all
Ġtyp es
w ord
r ight
Ġmed ical
ir it
ag s
Ġeduc ation
S he
V ID
Ġ Â
olog ical
v is
d ef
Ġterm s
Ġd ark
Ġpri or
ç Ķ
d o
Ġthem selves
Ġch oice
c ont
Ġcustom er
L e
ĠN orth
ir th
op t
Ġf Ã
Ġorig inal
5 00
Ġpre p
Ġl ower
k i
0 1
Ġopportun ity
Ġcl ick
Ã¡ s
v a
Ġst ra
Ã ±
idd le
m m
Ġpract ice
l ight
ĠM arch
æ ĸ
ren g
H E
U R
c ul
st e
Ġp ull
Ġgr and
ct ions
i ans
y ear
I d
Ġrecomm end
Ġm other
Ġbook s
ĠH ere
Ġs ou
Ä ĩ
T ype
am ed
Ġinte gr
B e
A t
Ġc u
f ig
or g
ĠA cc
ip ment
Ġwr ite
ĠH igh
Ġplay ing
ĠP ark
Ġch ance
air s
Ġapp ly
3 3
Ġitem s
h aps
o ke
Å Ļ
Ġis t
Ġav oid
ĠThe n
Ġprodu ction
Ġl ives
it ely
Ġaddition al
O ur
Ġthrough out
I s
ĠS ystem
ri e
Ġvar i
Ġdig ital
ĠS oc
Ġm ix
Ġhe ar
Ġw el
ur t
Ġrece ive
Ġv on
us iness
Ġb i
} ,
ĠBl ack
ict ion
Ġm a
f o
æľ ī
Ġs ong
Ġansw er
Ġman ufact
ĠJ une
ell ent
el le
Ġs ource
ĠG et
id ge
Ġd raw
in ary
Ġcas ino
IN G
Ġm atch
Ġb all
Ġthink ing
p ir
le br
ç »
ubl ished
Ġcond itions
Ġlevel s
Ġbenef its
ĠCent er
Ġve h
Ġatt ention
Ġits elf
Ġsk ills
O S
Ġbl ock
um ents
Ġim age
Ġactiv ities
Ġab ility
ord er
h ood
Ġl ost
Ġtr ust
7 5
Ġor d
as ons
Ġappro ach
Ġsur pr
ill ing
ĠS er
Ġs un
f r
ĠD is
Ġsal es
o om
ĠU s
w ise
Ġnecess ary
Ġsay ing
\" )
Ġeffect ive
ĠD ay
Ġs ort
Ġchall eng
Ġsc reen
Ġpro p
Ġf ix
Ġr Ã©
osp ital
Ġrel ated
l im
Ġser ious
Ġim medi
Ġc and
Ġdec ision
ĠA pril
O ne
Ġpol icy
Ġrece ived
Ġh it
Ġgl obal
P l
ĠWh ile
Ġcurrent ly
Ġp red
il it
Ġresp onse
ourn al
ang er
le ments
Ġa ve
Ġall ows
Ġcomplet ely
ĠS w
Ġd as
Ġhe ard
Ġfavor ite
Ġm ax
St ring
æĪ ĳ
Ġp od
Ġdoc ument
av a
ty pe
Ġgo es
Ġvi ol
Ġmarket ing
Ġam azing
Ġturn ed
Ġb ud
z z
ĠSe ptember
m en
ar c
Ġmem ber
se c
Ġag re
Ġmor ning
è¿ Ļ
ĠC ons
e ed
ĠG oogle
Ġsit uation
Ġlead ers
or ing
Ġpre c
Ġpl ant
m b
or ks
est s
Ġl ate
h old
ur g
Ġparent s
E C
Ġb ank
Ġdri ve
Ġstand ard
Ġcon vers
6 4
ress ed
Ġre le
Ġleg al
Ġsle ep
Ġs am
Ġcor rect
ĠJ uly
ĠF rom
æ ī
Ġ Å
3 4
Ġide as
Ġcl ients
Ġwork ed
Ġse par
Ġint rodu
Ġin j
Ġpre m
ain t
ĠP re
Ġc at
ĠAmeric a
Ġut il
om en
ĠA re
Ġoffic ial
ĠAug ust
Ġst ri
p en
b ody
at ives
Ġb on
ur a
ĠU p
ĠJ e
enc ed
å Ń
19 7
Ġinclud ed
Ġ ðŁ
Ġinterest ing
as c
s ych
Ġd iv
ĠRe ad
Ġad m
Ġf at
Ġcount ries
K e
ĠF ace
Ġte ac
Ġrec ently
Ġmain tain
Ġsl ow
è Ģ
bo ard
oc r
es ter
Ġfl ow
m ing
ĠG ener
it a
Ġr ound
Ġsit es
Ġto wn
ub e
od el
ĠR uss
Ġgr ad
ec ause
Ġs olution
Ġw ish
un k
Ġf ight
Ġmult iple
ĠN et
L ist
id ing
Ġs ell
Ġins urance
em ents
Ġst uff
ĠM us
Ġt our
ar ter
Ġe mer
he t
Ġh ol
m p
un ction
ide red
Ġhelp s
ĠP at
Ġlat est
ĠA nt
ĠCount y
ash ing
Ġtou ch
ak er
Ġim plement
Ä į
Ġsc he
Ġfe ed
Ġro ll
um n
Ġim ag
j e
Ġmach ine
Ġn ature
Ġg ave
Ġv oid
Ġget s
id o
Ġb oy
in n
Ġa uf
cl ass
Ġmod ern
Ġsa ve
Ġbu ilt
ove mber
ĠD av
iqu es
Ã ¢
ĠW est
Ġn ational
m as
Ġpart s
Ġtool s
Ġw ide
ic ate
Ġt al
ĠH ar
Ġbo ard
g ar
å Ĩ
Ġmess age
Ġdem and
Ġ ing
Ġr out
Ġintern et
Ġhim self
ĠA c
Ġproject s
Ġvar iety
Ġinfl u
Ġch o
D o
D es
B l
Ġstud ent
ĠF eb
Ġsaf ety
0 5
Ġst reng
ĠS im
Ġexpect ed
Ġent er
Ġbe gan
g n
Ġgroup s
ib ly
Ġf resh
l ike
b t
od es
Ġd ire
b and
Ġfeel ing
Ġcost s
rou ght
N ew
al ing
Ġsh all
Ġgo al
oc ol
Ġg ives
Ġf em
ch an
au ght
ĠH ouse
Ġf air
Ġe en
Ġinvol ved
3 8
Ġu m
g u
Ġcould n
Ġk it
Ġs end
Ġres ources
ĠO b
y d
ic ations
ĠO ut
Ġintern ational
ĠPres ident
ent y
l o
Ġtri ed
Ġrem ov
Ġpos itive
ĠR ed
Ġmay be
or a
or ge
\" \"
ce mber
Ġc ry
a ign
Ġc ross
A dd
0 4
Ġcour t
or age
Ġpie ce
Ġwr itten
Ġeffect s
Ġmeet ing
Ġexact ly
Ġcomput er
Ġapp e
Ġinvest ig
ĠCO VID
V al
ĠW ind
Ġpro pos
Ġh uge
Ġs qu
ĠEng lish
Ġatt empt
Ġindividual s
Ġdefin itely
is f
ĠD irect
Ġdis play
ver se
O r
d om
i i
ed eral
Ġto wards
Ġanal ysis
Ġs ummer
Ġprogram s
ĠM r
ĠTr ans
Ġm i
Ġnorm al
Ġw id
oc al
Ġcons idered
ĠT V
Ċ ĊĠĠĠĠĠĠĠ
Ġsu ff
Ġcom ments
p art
Ċ ĊĠĠĠĠ
A d
\" .
Ġphys ical
Ġd aily
Ġbec ame
____ ____
Ġdec ided
b ed
ĠTh anks
E O
Ġsom etimes
å Ĭ
Ġcertain ly
Ġen h
Ġcare er
m et
us ing
Ġg iving
ag ed
Ġloc ation
Ġre v
Ġre lease
m ore
ĠB ro
Ġg old
Ġenc ou
Ġcomple x
Ġm is
y ond
Ġch arg
A pp
ac ing
3 7
ir us
Ġl anguage
Ġsu bs
ĠM arket
Ġorgan iz
ĠCh ina
u pp
Ġdev ice
Ġf ine
Ġcons ist
Ġa verage
Ġbeh av
Ġce lebr
u k
ĠP ost
Ġcent er
0 9
d own
Ġw ood
Ġde ad
Ġpl ans
her n
du c
ĠPro f
Ġt ast
rop ri
Ġl oad
Ã¶ r
att le
0 2
S c
Ġj ud
Q u
Ġpurch ase
en ed
en ge
Ġk n
ĠA ng
Ġst ru
Ġcl ient
Ġse ction
Ġg reen
Ġm ark
it te
ap an
N ot
Ġdirect ly
Ġl ic
Ġp en
ĠG erm
I m
ate gy
Ġad minist
ell ow
t re
Ġt rou
4 8
ĠB est
h am
Ġar ch
k ing
y t
Ġm obile
al d
Ġd in
Ġv oice
Ġl if
Ġre ach
ĊĠĠĠĠĠĠĠĠĠĠĠĠĠĠĠĠ ĠĠĠĠ
Ġw arm
3 9
ig en
ĠIn c
Ġa ware
è ®
Ġright s
Re ad
ĠJan uary
Ġc up
Ġ id
Ġob tain
mer cial
ce ed
r im
a res
op er
l ist
Ġf ather
ĠAf ric
P ost
Ġfe ature
y p
5 5
I P
ĠOct ober
i ant
Ġal tern
âĢĿ ,
Ġdo g
c il
C ol
Ġe arn
ĠE very
riv ing
om s
Ġp et
Ġs old
ĠE r
se qu
Ġp ark
Ġde cl
Ġpolit ical
ĠW ar
Ġcond ition
Ġpress ure
Ġreport ed
Ġd ream
Ġdiffere nce
an ch
Ġfl oor
o ly
ĠComm un
Ġp ow
Ġcol lection
Ġcon cept
ĠC our
ĠF ree
ish ing
ag ue
p ite
Ġsub st
ĠV er
Ġdet ail
é ĩ
Ġadv ant
Ġexc ellent
Ġfor mer
Ġes c
Ġlead ing
opp ing
Ĥ ¬
0 8
A fter
re ci
ĠInd ia
Ġactiv ity
ĠTe chn
U T
Ġb reat
Ġtem per
The y
Ġem ot
anc y
oc ks
ra ge
Ġstart ing
Ġequ ipment
ĠL et
Ġmov ie
Ġan im
g a
Ġc ert
ĠW ell
i as
d ata
ĠFace book
Ġtalk ing
å ·
Ġhigh ly
ĠAl so
ĠJ es
/ *
æ Ń
Ġd ro
ĠB usiness
ru ary
Ġd ed
v est
Ã Ł
ĠE ven
w ood
ve y
ĠA ir
Ġe at
ac hes
Ġdise ase
ipp ing
f ield
Ġreg ist
ĠS an
Ġhe t
ac he
ä» ¬
Ġf irm
Ġv ous
ign ed
g est
Ġl ack
ate ver
Ã© t
ĠÃ ¨
ĠAust ral
Ġst ates
Ġst ock
Ã© n
Ġl ed
Ġspe ed
um ber
Ġg ar
Ġ ir
ol f
it ation
t ies
it able
ĠSu pp
å ĩ
ĠG roup
// //
Ġexper t
ĠM ich
Ġfre qu
Ġex erc
Ġhealth y
Ġstr ing
ar ies
Ġsub m
ĠU K
ar ily
Ġsp end
Ġfe et
4 4
Ġreg ul
Ġal one
re ate
Ġpart ners
Ġabs olut
Ġorgan ization
ĠF irst
b ox
Ġcar ry
Ġcon duct
Ġprovid ing
9 5
A b
ograph y
ĊĠĠĠĠ ĠĠ
Ġac qu
iz es
Ġn ut
Ġs olutions
ĠR em
S S
Ġplay er
Ġca pt
Ġm id
/ **
Ġfin ally
r ast
on a
Ġhist or
ĠAss oci
ro te
d ate
pl ace
Ġem b
Ġv ict
ĠIntern ational
Ġpl aces
( $
Ġb rought
am ing
Ġresp ond
Ġre ve
ul a
Ġad ult
on ent
Ġstr ateg
ĠB rit
ar io
if orn
Ġs av
ant ly
Ġag ree
0 6
b it
Ġey e
ĠK ing
Ġachie ve
ru it
Ġmaterial s
Ġpat tern
Ġnot e
Ġloc ated
ĠI N
ĠM ost
arl ier
Ġful ly
ĠN ovember
Ġl iter
ĠServ ice
Ġmov ing
augh ter
Ġemploy ees
ro id
Ġv irt
Ġg as
ard en
ri ve
Ġunderstand ing
Ġstra ight
Ġinterest ed
in i
Ġlov ed
D ata
ibr ary
Ġpro gress
V iew
ay er
Ġin nov
it ute
Ġh our
om b
ĠNew s
Ġs ale
Ġcult ure
Ġdou ble
0 7
o oth
id ents
E L
Ġd ry
ic ks
ig er
v ille
Ġn ov
Ġwould n
Ġs en
ĠD em
b on
in y
Ġm ount
is ions
im ately
Ġev idence
Ġcamp aign
u ate
ch ange
b ut
i very
Ġt im
ĠF e
ot o
ĠL aw
ap ter
Ġb irth
Ġent re
19 6
Ġrest aur
k er
Ġcreat ing
Ġacc om
ĠServ ices
ĠDe cember
os it
ĠH ome
P S
l ig
ound s
ĠDep artment
Ġare n
ad y
i ers
ur rent
Ġun s
v o
Ġc ash
Ġpre fer
Ġinter view
Ġhe at
l in
Ġess ential
Ġfam il
Ġth row
Ġext rem
==== ====
Ġplay ed
Ġn ull
ly ing
Ġl ib
iforn ia
Ġbro ad
n ÃŃ
Ġs y
Ġlim ited
C H
rib ute
H ere
Ġw at
Ġpol ice
å ¥
Ġcontin u
n ie
U N
Ġrel ig
Ġp ublished
Ġf ab
Ġus es
Ġpro ced
Ġhappen ed
Ġb aby
Ġh op
Ġphot os
O L
ĠPro gram
ĠP lease
over n
Ġprom ot
ic ip
b ol
id ad
ur ation
qu est
Ġcont ain
ing er
ĠG o
Ġeff ort
Ġocc ur
Ġst ress
a el
Ġdevelop ed
ell o
Ġrequire ments
ond on
N ow
le an
Ġsm art
Ġa im
Ġb ur
ĠI I
Ġf ear
Ġpict ure
Ġf alse
Ġgrow ing
oun ced
Ġplan ning
Th anks
Ġincre ased
Ġwant s
Ġt end
ĠOn line
Ġstud ies
I nd
Ġst ories
Ã º
? âĢĿ
in clud
Ġcl in
Ġop in
Ġex ecut
ament e
Ġd rop
Ġref er
om ing
I nt
Ġf arm
Ġsuccess ful
it ude
Ġpa id
Ġass ess
ist ics
Ġthan ks
p ond
ĠC oun
Ġassoci ated
Ġm er
A B
Ġbusiness es
ĠRe view
rap y
ĊĠĠĠĠĠĠĠĠĠĠĠĠĠĠĠĠ ĠĠĠ
Ġj our
Ġc ateg
it Ã©
al ed
Ġeas ier
Ġfr ame
Ġredu ce
erv ed
ĠJ apan
Ġne igh
ri ef
Ġwonder ful
ri al
Ġfor ce
Ġst ream
ron ic
Ġcom o
Ġdem on
pec ial
Ġatt ract
ic ient
Ġpur pose
Â ·
Ġgu y
Ġpr ices
Ġcont ribut
Ġas pect
ous ly
ff ee
Ġcons ult
Ġprofess ion
Ġact ive
Ġpat ient
p m
Ġeconom ic
Ġmean ing
it o
d iv
now n
ren ch
Ġbegin ning
ic ed
Ġtit le
r an
ĠIn ter
c her
od ay
I L
3 00
ĠG ood
Ġstep s
Ġb and
Ġtri p
ĠB ook
Ġmil it
ann el
Ġc old
c z
Ġapp reci
ĠW ork
Ġgl ass
m l
i ance
Ġth reat
Ġsp read
ĠWe b
iÃ ¨
Ġreg ion
und ay
Ġthan k
Ġchang ed
ĠP ort
Ġbe yond
am ic
und red
\" :
Ġre asons
Ġm ill
ĠS en
Ġa f
Ġcon v
ĠJes us
Ġd oll
ĠWh y
Ġw ife
Ġtrad itional
ĠJ ack
ac ity
Ġdist ribut
F rom
p ath
Ġnum bers
Ġgu ide
Ġrele ased
Ġbl ue
in ated
Ġev al
+ +
Ġsp irit
Ġst ar
Ġcol lege
Ġpres ident
ir ing
Ġsat isf
ĠS l
Ġapplic ations
Ġval ues
ent e
Ġm al
Ġdr ink
ig e
Ġch arge
Ġsp ent
Ġgu ess
at i
Ġimmedi ately
Ġc opy
å ¸
Ġn u
Ġu lt
Ġl ength
\" );
ĠS k
ĠFr iday
O b
ipp ed
Ġst age
ĠD el
Ġc ru
I V
4 9
ĠD et
Ġbenef it
or row
ĠG reat
Ġr ules
Ġr ates
Ġact ual
s ize
Ġallow ed
Ġar riv
f ord
Ġdel iver
az on
Ġtr uly
I G
6 5
Ġh om
he st
Ġapp ropri
iv il
Ġb es
Ġcl ub
Ġth ous
ĠO ther
Ġdam age
atur day
Ġparticular ly
Ġcap ital
edd ing
vent ion
d a
p ack
b um
ĠP al
Ġh ous
M S
Ġg one
ad os
? ?
os ing
em y
an ia
c are
n et
Ġne arly
ond ay
ven ue
Å ¡
Ġer r
Ġgo als
Ġincre asing
Ġim ages
Ġl ines
ĠDes ign
Ġad just
oc ation
Ġsu st
Ġind epend
se e
ind er
Ġopportun ities
pp ing
Ġbas ic
Ġreview s
Ġe arlier
C T
Ġave c
ist ry
for ce
[ ]
ter m
Ġsp ot
: )
s k
ash ion
ĠM et
Ġv o
ĠFeb ruary
Ġmod els
ĠDe velop
e ah
as y
Ġover all
f rom
Ġt ick
ĠSt reet
ä¸ º
Ġswe et
Ġt u
port s
ĠCal ifornia
Ġmethod s
Ġuse ful
! \"
Ġthought s
Ġinvest ment
ĠG old
Ġh us
Ġg ift
Ġsh own
ĠC r
D O
ef ore
ra b
Ġstr ategy
l og
Ġto m
ĠPh il
L a
Ġtr uth
å¤ §
Ġer ror
pr int
Ġsupp ly
con st
Ġre nt
c ks
Ġpro te
Ġmeas ure
0 3
ĠP M
Ġc it
ĠAn y
ĠCan ada
Ġsc ience
p oint
Ġf ol
ĠB en
Ġpain t
h ouse
ĠWh ite
Ġcand id
ĠR et
Ġbud get
S p
ä¸ Ń
Ġm iddle
m ail
Ġw rote
c el
ĠE st
ol a
st ring
Ġstruct ure
' )
Ġcomp ared
ru pt
Ġp sych
Ġsc ient
it ect
Ġback ground
z i
Ġha ven
ĠSu per
ĠA P
n en
ĠS ub
ĊĠĠĠĠĠĠĠĠĠĠĠĠĠĠĠĠ ĠĠĠĠĠĠĠĠ
ĠC B
Ġme chan
il ed
Ġse g
ĠChrist mas
Ġmov ed
Ġn ation
Ġsee ing
Ġro ck
Ġdeg ree
Ġob vious
l ich
Ġgu ys
M e
Â ł
ill a
Ġwind ow
Ġkit chen
Ġgreat er
Ġpart ner
Ġstru gg
Ġdi et
ĠM or
ĠI l
Ġconf ig
Ġsur v
Ġstat ement
es ome
Ġtrans port
ĠG reen
Ã¨ s
Ġdev ices
ĠO ver
I M
w ide
Ġlim it
ä¸ ª
j a
E r
f ree
å º
Ġteam s
por ate
an i
in ate
å ¯
ĠPl an
ĠL ondon
Ġt out
Ġcom mercial
Ġser ve
Ġsur face
Ġto ward
Ġs ich
itte e
Ġp m
ĠB et
Ġal though
Ġprotect ion
ĠMan agement
Ġsh aring
Ġper haps
enc ies
ell ig
Ġinst itut
ĠÃ© t
Ġbas is
Ġjo in
ĠIt al
Ġcon text
Ġh undred
Ġset ting
Ġpo or
ĠCol lege
Ġfamil ies
and om
ãĢ ģ
is ation
Ġconnect ion
å Ĵ
il ing
c a
Ġo m
Ġtrans fer
Ġregard ing
Ġpower ful
ve re
Ġfig ure
Ġn icht
Ġf ant
l ied
Ġstat us
âĢĶ âĢĶ
Ġfil es
Ġqu ant
f ile
Ġh ospital
Ġrem ain
Ġref lect
ĠM ac
4 7
Ġm icro
Ġo k
Ġt ut
oth ing
Ġstreng th
par am
Ġconst ruction
Ġr ace
Ġnot ice
at us
Ġan g
Wh y
ç İ
em pl
[ '
on ents
ag o
es tern
in er
Ġoff ered
ic ious
at ively
R ec
he m
en a
## ##
Ġcell s
Ġn ames
Ġb row
el a
Ġp al
ind ing
Ġb rain
Ġd ress
ĠPa ul
Ġw ild
ĠB er
Ġtr ade
w ith
The se
Ġd ies
du le
h o
b an
Ġfollow ed
ashing ton
Ġar r
Ġp u
Ġcoll abor
ĠSt r
Ġt on
Ġra p
ĠRes earch
Ġsl ight
Ġc ast
Ġar m
Ġl uck
or ry
Ġa head
M an
opp ed
ĠH ot
f riend
f e
Ġbott om
_ {
ĠD ist
æĿ ¥
ĠA N
D on
Ġb urn
Ġche m
ä¸ Ĭ
ĠM od
D A
if ying
Ġm ais
ĠIn s
as ure
Ġp ages
Ġsp orts
ĠD ie
Ġinc ome
Ġadv ice
ĠM any
åĪ °
Ġupd ate
ĠS al
Ġsh ot
Ġ ign
Ġpop ulation
4 6
Y our
Ġfact ors
Ġaff ord
a per
am ily
ĠR el
Ġextrem ely
ĠM icro
Ġtre nd
Ġb ra
b en
act ions
Ġh arm
Ġke pt
Ġc atch
ĠPl ay
ess age
ĠR om
i able
Ġp and
Ġt ro
Wh ile
ĠA M
Ġl ock
ur l
Ġme ant
os ition
Ġlot s
ĠEurope an
Ġstat ic
è ĩ
er r
ĠS T
lev ant
duc ation
Ġd ating
Ġa us
ĠA v
ĠH ol
ion es
Ġwe ar
ĠP C
Ġw er
ĠU se
æ ķ
Ġb ath
ph one
ang ing
ĠS ie
Ġphot o
Ġ Ċ
Ġsh op
Ġbro ther
Ġad vert
Ġprim ary
O ver
R A
b ar
o very
so ft
Ġgirl s
Ġm ist
Ġpay ment
D E
8 8
ĠWind ows
h and
Ġveh icle
ĠE v
own load
Ġant i
Ġd im
Ġgu id
red ients
Ġprodu ce
Ġlaw s
Ġreport s
Ġp ush
Ġres ist
ĠIn formation
ĠSt ring
Ġsh ared
Ġn ie
Ġro b
s es
Ġm ort
Ġsh oot
hen s
Ġwh atever
Th ank
Ġh at
È Ľ
S P
ĠDav id
Ġrequ ires
et ic
p ublic
ĠS unday
erv ice
N e
ĠD an
ĠB el
Ġsoc iety
olog ies
Ġhelp ed
r ad
ĠM art
Ġhand le
âĢ ŀ
ĠCl ass
è µ
Ġchall enge
Ġb atter
ĠInd ian
ic ine
ud d
z er
Ġim pl
Ġwho se
Ġc ra
B C
Ġacc ur
!! !
Ġexist ing
Ġc ards
ri age
Ġown ers
Ġh ar
Ġb ag
Ġocc as
ĠT ime
Ġinc red
Ġv ac
Ġcan cer
os is
ung en
and er
ĠG overn
Ġschool s
) );
Ġseem ed
Ġgener ally
ĠL ist
Ġst orage
ĠE ast
Ġe ine
t es
Ġe ight
Ġmention ed
pect ive
Ġpass ed
Ġnum er
i ation
ĠY ear
Ġsit u
ĠÃ ®
u j
ic on
m o
re y
Ġpe ace
u er
Ġpr inc
Ġhus band
C C
Ġexp and
ĠTh ank
Ġm Ã¡s
m es
Ġm ir
E M
Ġch urch
ĠM ag
ch a
Ġann ounced
Ġl ose
S te
15 0
Ġun c
is l
// /
Ġc ab
r as
ol ic
ib er
ĠD ata
anc ing
Ġb ul
Ġide al
o in
Ġexperi enced
Ġcrit ical
ĠIntern et
( ).
Ġt ips
l or
Ġf ra
Ġjob s
ag ram
Ġcomfort able
ĠT ex
! =
Ġrespons ible
Ġdel ivery
Ġinst ance
Ã© es
ĠH el
N A
ust r
Ġm ap
ĠS am
Ġweek end
Ġmult i
h ow
re nd
Ġinst ruct
Ġman age
Ġb illion
use um
Ġsur round
t est
Ġinit ial
Ġelect ric
Ġreal ity
Ġlearn ed
Ġlo an
Ġst ick
ĠL ike
Ġv acc
Ġg ro
ĠB ecause
hip s
******** ********
r ite
Ġmil es
Ġl ab
o es
Ġatt end
um an
Ġoff ering
Ġdru g
et ers
é ģ
Ġe lements
ĠO h
it ar
Post ed
Ġadvant age
Ġb orn
Ġbut ton
act ers
Ġval id
Ġpro s
ĠPe ople
l ished
ĠM ake
å İ
Ġon to
ĠT op
Ġun f
Ġsol id
4 2
æ Ģ
Ġmove ment
ĊĊ Ġ
Ġdis app
ĠJ ames
ra el
g ency
Ġo ch
ann ed
sp an
in st
ĠChrist ian
Ġc art
ĠD ec
> <
Ġm ental
Ġf an
ĠW ord
Ġlarg er
Ġdi ed
Ġpict ures
ĠO nce
åĴ Į
ĠC are
ĠC as
Ġhapp ens
å ¿
Ġeff orts
Ġrem ove
Ġhelp ing
Ġw a
end o
Ġjour ney
Ġpie ces
us ion
ot a
val ue
Ġthere fore
ĠGener al
U p
Ġwork ers
Ġfind ing
p at
Ġsec ret
clus ion
com ing
ĠW ashington
Ġmilit ary
os h
Ġun it
Ġwait ing
Ġb ow
at ically
ĠF ound
umm ary
e ch
w ell
Y es
ĠL ife
Ġold er
ĠS aturday
Ġmon itor
p et
Ġm outh
ĠT est
Ġa uch
Ġf ans
Ġj u
w orks
A cc
Ġheav y
Ġv s
Ġdep end
ak ers
Re g
ĠS ur
è §
Ġcl osed
Ġco ffee
Ġappropri ate
Ġcontin ued
ĠM al
Ġd anger
Ġgu ar
Ġtest ing
Ġo d
ĠP ublic
Ġknow s
ant a
Ġlet ter
S ome
eren ces
Ġsound s
Ġs pl
Ġc os
r at
ç Ľ
as ks
ide o
Ġfa ith
Ġchalleng es
I R
L O
w o
urs day
ĠComp any
ĠM onday
$ \\
Ġind ic
ac ht
Ġer a
ĠM em
Ġdire ction
Ġal s
Ġn om
ĠI T
tern al
Ġg raph
Ġcoun ter
ĠCour t
v ar
in ally
ĠM a
Ġp ub
ĠSe e
ick en
em s
ĠS pr
Ġt ree
u a
Ġsec ure
ill er
ĠP ower
ed nes
ä» ¥
Ġt ask
Ġfin ish
ĠD ef
e qu
ines e
i us
ĠC ap
ff ect
Ġr ich
ĠOff ice
ĠL ord
ro y
ĠR ich
Ġmem ory
Ġf lex
æ ł
é Ĥ
ook ing
b a
ĠH all
Ġl inks
Ġdef ault
ens es
Ġmanufact ure
f erence
åľ °
Ġm ale
Ã¤ r
O f
ĠS il
ĠC am
cl es
Ke y
Ġbe g
ber g
ut s
ç §
ol es
ĠAt t
or ial
ĠS et
ĠPr ice
Ġsc en
P lease
Ġpo ol
z ie
Ġenh ance
} ;
Ġre pe
Ġd ur
ĠY es
l ies
Ġf uck
ĠPro ject
ĠF orm
O h
Ġr id
Ġr at
Ġwe ather
Ġcommun ication
Ġdeterm ine
ues day
S E
ĠRep ublic
19 5
Ġtrans l
è ¡
é ĥ
Ġa ward
Ġal bum
ortun ately
Ġd ella
Ġe lement
Ġpre par
Ġexperi ences
Ġdo ctor
Ġd riving
Ġwatch ing
el ine
Ġwor ry
l s
ĠS ince
Ġact ions
Ġcam era
Ġsym pt
all s
el ess
y a
ĠChe ck
ĊĊ ĉ
Ġhot el
Ġex cept
Ġopt im
Ġcon ven
Ġcon cent
Ġ Ð
In st
S et
Ġsi ÄĻ
act ive
Ġpol ic
Ġchar acters
Ġdemon str
p an
un c
Ġep is
ĠF rench
] (
Ġch at
ĠTr ump
Ġcomm it
Ġbal ance
ĠPro duct
7 8
Ġcomp ar
ĠL ove
n el
per ty
re me
Ġdisc over
Ġfin ished
al a
ou nce
Ġse lection
f ol
Ġkeep ing
ĠB ig
M ore
ĠV is
Ġfl u
are n
4 00
P r
Ġv ent
âĢ¦ ]
am in
le te
Ġvide os
ri a
Ġhon est
Ġcont roll
iv a
Ġm aster
Ġp un
Ġg un
ear n
Ġal t
Ġpost s
ĠS om
ĠBo ard
Ġrel ax
Ġestab lish
o ch
ednes day
Ġaud ience
Ġinf o
in ct
por ary
Val ue
Ġf ederal
ad ing
Ġv ill
ac ement
C A
ĠB ank
m ark
Ġhig hest
Ġd os
Ġfor get
Ġs in
Ġdi agn
os ure
Ġcomm and
Ġcr is
ĠÂ £
i at
ĠAm azon
Ġapp oint
Ġopen ing
ent ially
F r
r d
Ġtra in
ad s
Ġlarg est
ĠAn n
Ġorganiz ations
Ġse ven
Ġser ver
re r
O P
d es
é Ĺ
ĠO pen
ĠUS A
ili ar
Ġcont ains
[ âĢ¦]
ĠM iss
C he
ĠR ob
ĠW ater
Ġy es
C an
Ġfe at
il er
Ġm es
F F
i ot
é Ģ
Ġcl oud
ĠAssoci ation
ĠM ark
ock et
Ġs ession
I A
z o
ĠTw itter
6 6
p x
Ġopen ed
Ġc overed
Ġsc ore
ç ľ
Ġh omes
Ġcreat ive
ĠV ol
in os
ĠCoun cil
ĠTex as
ĠV e
Ġbehav ior
au x
ab ase
Ġsh ape
ĠH ist
l en
Ġb ill
Ġd aughter
ĊĠĠĠĠĠĠĠĠ Ġ
Ġcle arly
Ġin put
ici ency
Ġn amed
Ġeff icient
h al
Ġf av
it ors
4 1
Ġg ain
c ious
Ġinit i
Ġview s
ack s
ici ans
t d
Ġcent ral
o i
ĠS ing
Ġabsolut ely
Ġcall s
Ġpand emic
Ġdirect or
J ust
Ġdec ide
ĠCh urch
ak ed
Ġe arth
im b
ĠSc ience
Ġth us
Ġre levant
Ġca used
A m
c omm
E d
Ġshow ed
Ġcol ors
ĠFl or
Ġm agn
erv ation
stand ing
Ġad apt
Ġcap acity
Ġra re
ĠSoc ial
s u
Ġform s
Ġeconom y
Ġtrans form
el d
Ġs and
Ġk id
ĠC ong
Ġexerc ise
m od
8 5
i em
oy al
Ġpar am
P A
ow e
Ġother wise
Ġtop ic
k nown
È Ļ
od d
ten ance
Ġs ont
row d
Ġmot or
æ Ĭ
ĠT HE
Ġbig gest
Ġbec omes
Ġtemper ature
Ġqu arter
æĹ ¶
ost er
Ġm ission
Ġfab ric
Ġdec or
C E
T ime
Ġsm ooth
ĠBrit ish
Ġre ached
Ġac ad
/> <
ic ing
Ġsust ain
ã ģ
Ġcommun ities
Ġf ill
Ġf ish
I I
Ġan c
ain e
å ĳ
land s
d oor
Ġfl o
iv o
Ġneg ative
Ġsex ual
ruct ure
us hed
Ġc ore
Ġestab lished
Ġinc or
Ġm ut
L ike
æ ĥ
Ġann ual
iss ions
Ġpres ence
ot hes
rou d
Ġins p
ct ors
Ġsu gar
Ġent ertain
un te
ĠC ustom
Ġown er
ĠCh ild
k l
Ġ eth
le ar
Ġcomplet ed
ut y
W ell
Ġwill ing
Ġsur g
Ġs ources
' ]
è ĥ
ab led
Ġhelp ful
P ar
E l
Ġest im
Ġal c
( (
ĠR oad
Ġoper ations
Ġbu ying
se y
S A
Ġent ry
Ġmajor ity
ĠDirect or
Ġdou bt
ĠP ay
it ness
om a
Ġproper ties
e z
ĠM o
Ġvis ion
O W
av ig
om as
Ġexp ress
ĠAl though
Ġadd ing
Ġtra ffic
ĠS ol
az ione
al le
4 3
and a
Ġn ous
wh at
D F
Ã§ Ã£o
Ġo s
Ġfund s
Â ®
im a
ĠF il
clus ive
ĠJ ew
Ġsu d
ment e
Ġcal cul
Ġdescrib ed
ĠApp le
L A
\" ;
19 4
Ġvis ual
Ġprep ared
ri an
Ġle aving
Ġform at
v ol
Ġpl aced
ĠDevelop ment
Ġclass es
ĠC amp
Ġpass ion
Ġencou rag
L et
ri er
ab ilities
ĠAustral ia
ĠCh ar
Ġdist ance
Ġad opt
Ġam b
p a
ip es
Ġserv ed
Ġrec ipe
p ass
Ġm ent
. '
ĠW he
Ġre b
Ġhy d
ĠP ress
est ival
Ġmet al
ĠE ach
Ġprodu ced
Ġd ra
h ab
ĠB ra
Ġse a
Ġfore ign
te red
Ġbr ight
Ġbon us
Ġpl enty
Ġsc ene
Ġcre am
ed om
Ġw edding
ĠS un
Ġtechn ical
Ġrelationship s
j i
Ġj ump
st ate
includ e
Ġst y
Ġr ing
w er
Ġtast e
Ob ject
ĠE ducation
Ġp air
Ġc op
ĠProf ess
ĠR E
Ġopin ion
ĠB ack
Ġrest rict
Ġsp ort
r ate
Ġdri ver
ĠEng ine
ed y
ĠF ore
ĠE lect
Ġdevelop ing
v oid
Ġdis p
Ġstand ards
Ġlead er
ĠS pe
Ġm ine
g al
Ġte aching
7 7
ul ated
Ġem p
M P
ung s
Ġl abor
Ġins pir
ur d
Ġtot ally
Ġ ice
ific ations
um s
é Ŀ
Ġpart ies
ist a
Ġwel come
ĠCl ub
Ġfor g
pect ed
Ġf ashion
as p
ĠMich ael
P er
éĤ £
æ Ķ
ĠD i
Ġte le
5 6
v in
Ġconvers ation
ĠInst itute
ĠR ober
Ġl ie
ĠIs rael
ĠCh inese
f ast
ĠZ e
ĠM ad
Ġr ule
ur b
id den
Ġest ate
Ġf ell
Ġref erence
H i
Ġrem ains
Ġhe ight
Ġbec oming
Ġout put
Ġmod e
Ġla unch
å° ±
ant ic
Ã ´
Ġest e
M ay
ĠCon st
f unction
ĠM ary
Ġra ised
Ġal g
I F
Ġexper ts
ĠE s
pt y
Ġr om
Ġse ctor
Ġb ien
A re
Ġlist en
f it
Ġret ail
ĠI S
Ġpack age
C omm
B A
Ġr ank
ens ions
ĠL ou
Ġex hib
Ġsmall er
Å ¯
p ost
ĠF ood
ĠF re
Ġident ify
ul ate
ri p
Ġpract ices
Ġpl ants
Ph one
Ġask ing
Ġst reet
Ġexc ited
ĠQ ue
un ning
Ġdiscuss ion
Ġsche dule
Ġm ail
is hes
x y
it ure
ĠJ er
ĠSt ar
ap ers
f s
Ġadv ance
ĠA lex
Ġe gg
Ġaw esome
ĠFr ance
Ġdec re
us er
Ġche ap
Ġsw itch
5 9
Ġsc ale
o ir
ĠB re
Ġart ist
Ġcit iz
Ġnumer ous
Ġcent ury
Ġwin ter
Ġshow ing
app y
ĠAn al
ĠAr ch
Ġj ournal
ad er
Ġsp ect
Ġclaim s
ĠCl ick
p ace
ed er
Ġb an
ĠL og
Ġv oor
a ire
v i
os en
ĠB uild
Ġmin ute
Ġco verage
Ġconnect ed
yn c
Ġt ight
Ġass ert
ĠE xt
et e
r c
ĠU nder
Ġaut o
Ġsp ring
Ġdec isions
Ġpl ug
iz z
Ġfil ter
ul ations
Ġeven ing
Ġanim als
n ight
Ġind ex
ĠFr anc
( ),
Ġpost ed
ç ī
ĠP erson
iz er
y th
Ġsh opping
Ġdes pite
Ġbe at
se mb
Ġle aves
Ġaltern ative
Ġrap id
ç Ŀ
Ġchang ing
Ġing redients
Ġprocess es
Ġpresent ed
p ress
ĠV iew
Ġexpl ain
Ġw ine
Ġap art
Ġb ought
pr ise
Ġsepar ate
Ġmost ly
Ġst ation
k o
ĠRe al
s ub
y ou
ĠÃ ¤
Ļ Ĥ
Ġart icles
Ġjo ined
ĠEx per
ĠI D
& &
} );
Ġv ote
ant ed
Ġexp ensive
up s
ĠB ay
ĠS af
Ġpo ly
Ġselect ed
. _
st on
Ġmot iv
Ġd yn
Ġass um
âĢ¦ .
ĠThe ir
ear s
æ °
Ġneigh bor
he nt
ĠTh ursday
Ġsl ot
Ġfun ctions
res pond
Ġsympt oms
y e
Ġe ating
ĠOr gan
Ġc ivil
Ġmanag er
out s
Ã© d
Ġappro x
T S
Ġvirt ual
co in
ree k
Ġexpl ore
Ġtal ent
ic he
Ġex ception
id en
le vel
an z
ir gin
Ġprotect ed
ĠBl ue
Ġput ting
Ġp ou
Ġf old
Ġslight ly
is er
Ġfocus ed
Ġsud den
Ġsus p
åŃ Ĳ
F ile
t i
Ġn os
Ġtyp ically
ond s
ĠT om
Ġv en
Ġend ed
R ef
Ġlist ed
Ġappear s
Ġmanag ed
Ġadv anced
Ġsh ut
ell er
ad or
ĠC ard
al i
Ġch air
Ġdet ect
Ġmarket s
h i
Ġed ge
p onse
Ġsp ending
om et
Ġun less
Ġcontin ues
Ġdoc uments
se m
ĠH ave
Ġs au
} )
Ġacc ident
p ret
Ġstart s
O D
5 8
Ġrecord s
Ġf urn
n s
Ġc rowd
åĩ º
ĠR ef
C o
Ġcomp re
Ġcomb ination
ĠD ig
c ode
Ġthous ands
Ġf illed
we et
w a
ĠT uesday
ĠH and
h ost
w in
Ġintern al
Ġmeas ures
Ġse qu
ic it
if ts
Ġprof ile
Ġal le
Ġtechn iques
go ing
ĠE nt
ĠAfric a
y er
How ever
Er ror
Ġset s
O M
Ġagre ement
Ġcor ner
Ġcirc um
é ĺ
Ġfem ale
Ġher self
Ġqu iet
Ġfl at
Ġfe els
Ġth r
Ġoper ation
Ġwebs ites
ĠCol or
el es
ot al
R ep
ĠL ong
ĠCB D
wh ile
Ġsecond s
Ã¶ n
or ia
c raft
Ġwas te
Ġint ellig
Ġgl ad
ĠM ex
5 7
ĠS a
wh ich
Ġwalk ing
Ġc raft
um in
ĠFlor ida
Ġmar riage
d is
å ¦
Ġbeaut y
ond e
ur ies
Ġcl imate
Ã¡ n
Ã© c
Ġp oll
ĠF ire
Ġb rief
Ġs now
Ġtrans m
Ġwer den
Ġreal ize
Te xt
ob e
ĠWh o
! âĢĿ
c ase
Ġconst ruct
Ġne ck
og en
Ġmen u
ĠM er
Ġfact or
Ġmin imum
end e
Ġcompet ition
Ġfam ous
ri pt
Ġposs ibly
in ar
Ġhold ing
Ġsupp osed
Ġve get
Ġan x
Ġp roud
g age
ĠTw o
Ġarch itect
Ġt ill
A ut
Ġs ac
' ;
Ġfam iliar
ĠW ednesday
it le
Ġreturn ed
ĠTe am
Ġcar s
ĠL ight
ĠSt and
Ġbreat h
Ġmed ium
ĠI P
Ġrun s
Ġs ind
Ġth ick
O ut
Ġmax imum
ou l
U s
el er
Ġprevious ly
Ġpr in
ag en
od ies
Ġindepend ent
Ġo der
2 50
ĠGr and
T E
riv ate
ĠCommun ity
el ines
Ġr ac
m ar
e v
Ġtest s
Ġg arden
ocol ate
ĠT or
ĠMay be
Ġr ise
Ġpred ict
Ġtri al
åĲ İ
Ġar ms
ed ia
Ġprofession als
ĠC D
b al
ij n
Ġr andom
å ±
ĠComm ission
Ġlead s
am i
Ġsh ip
Ġf o
Ġtem pl
ell ed
Ġl abel
Ġinflu ence
Ġs itting
ĠðŁ ĻĤ
Ġnov el
Ġdin ner
Ġnot es
Ġfor t
est ic
r id
i est
Ex ception
Ġst opped
ĠS y
Ġoper ating
Ġp ure
Ġsym bol
1 20
ĠDem ocr
Ġdi vers
() );
oss ible
or ter
ĠMicro soft
Ġpolic ies
Ġinj ury
ĠG en
ident ial
ĠT H
è¯ ´
ĠM at
ĠE nd
ĠT O
Ġan s
Ġconf erence
room s
ar p
Ġded icated
Ġsal t
Ġt ip
Com p
Ã© r
T est
Ġan imal
Ċĉ Ġ
¦ ģ
ok en
Ġapp lied
Ġmiss ing
Ġvol ume
Ġc aught
re te
Ġel im
Ġm ig
Ġk ill
Ġsm ile
un a
Ġleaders hip
Ġstrateg ies
b d
Ġb ird
Ġex change
Ġro t
re es
ffic ient
Ġad vent
Ġproper ly
r um
Ġrecomm ended
ri x
Ġrestaur ant
ir a
Ġevent ually
ot es
Ġperform ed
th at
l ock
ĠL o
Ġb ound
er g
ĠSt art
amb ling
gr ad
Ġsett ings
Ġrem ind
ĠN on
T H
Ġr ub
Ġthe rapy
Ġvict im
P re
ĠSec urity
Ġbo ost
ĠM ount
= '
Ġconcern s
Ġste el
or ney
ch o
Ġs ad
] ;
Ġenjoy ed
Ġn or
ĠL and
oh ol
ang es
ist an
Ġra ise
ul ed
ian o
Ġr ide
Ġbr ings
ĠIt s
Ġgener ation
ess ions
r ical
Ġl iqu
Ġst ret
Ġclass ic
' :
m ath
Ġinf ect
ĠR ock
Ġa ux
E very
Ġs elling
Ġwor se
ĠU N
ic ial
Ġclean ing
ĠMed ia
Ġinst r
ĠR iver
ĠW ood
ĠW here
Ġclin ical
Ġprote in
on om
Ġdes ire
Ġleg isl
Ġthem e
Ġch amp
ĠW omen
ĠL at
ang ed
æ Ħ
Ġwh om
Ġrep air
ic ago
Ġsc hed
Ġteac her
Ġaccom pl
Ġdisc ount
Ġla un
Ġfund ing
F l
ĠT ur
ĠOn ly
Ġexper iment
S C
out hern
é Ļ
Ġf aster
Ġpl astic
Ġse at
Ġimport ance
rom e
Ġk illed
Ġupd ated
am os
Ġexp ression
Ġroom s
Ġspec ies
Ġm as
ĠÃ® n
Ġprocess ing
ĠEng land
Ġk ick
Ġcomp onents
is k
ak s
èĢ Į
Ġknow ing
g ers
Ġs ie
Ġres idents
19 3
u able
Ġfoot ball
Ġor g
Ġra in
Ġs an
6 8
az ine
w s
Ġconf lic
ĠT ake
Ġallow ing
U L
Ġmain tenance
og a
Ġmar ried
rel ated
Ġimag ine
{ \\
ĠR ad
r ig
Ġco ord
ĠRep ort
St ate
ĠAd v
Ġaccount s
ĠB i
ĠS pecial
Ġcr im
s m
ĠJ ournal
F irst
Ġapp s
ä¸ ĭ
ĠM ont
Ġassist ance
gr ade
ĠB as
Ġfe e
Ġmin or
Ġj oint
Ġwe ap
Ġo dd
ĠPro t
Ġpan el
et ime
F orm
â Ĥ¬
Ġdep artment
l ife
Ġsee k
ĠM ot
æ ĭ
8 00
19 2
Ġm ac
Ġv it
c m
6 9
---------------- ----------------
Ġpre gn
Ġgu ard
id th
Ã¤ t
Ġdru gs
ar on
ĠM il
ĠM en
ĠC all
we ight
Ġour selves
ĠT oday
Ġfac ilities
Ġb attle
Ġag ency
Ġte ach
Ġdo gs
è ¦ģ
Ġ ich
Ð µ
Ġcall ing
Ġdep ending
ĠAc ad
Ã© m
Ġsc ript
f il
ĠL es
ĠL ake
ĠB ill
Ġs ister
s hip
h op
ĠSm ith
ĠPro v
ĠF amily
Ġspecific ally
Ġro ot
Al so
c os
ĠJ ul
Ġshe l
und er
an ie
Ġhol iday
t hen
et a
Ġdeb t
Ġremov ed
M L
Ġun ivers
k in
het ic
ul ous
Ġteac hers
ĠF ull
ĠSh ow
um er
Ġtre es
Ġsupport ed
ĠGe orge
Ġappe ared
Ġany where
mer ce
is her
ĠIs land
ĠCent ral
ĠL os
Ġca uses
ĠM att
ĠN ov
å Į
Ġsen ior
Ġst ores
app ing
ĠM ass
r ide
it z
5 2
in te
Ġd ial
Ġstand ing
st ract
Ġph il
Ġthe ory
Ġg i
P art
Ġsign s
ĠM ax
ĠT ype
ĠAnd roid
omm od
Ð °
ĠFound ation
ĠCar ol
Ġl ived
in ating
Ġch ain
Ġdep osit
ĠGovern ment
iÃ¨ re
Ġsh ift
w ater
iven ess
L ast
Ġdef ined
Ġst ated
ition ally
Ġcry pt
Ġcho ices
R I
n i
ĠD u
s l
ĠB rown
Ġsignificant ly
ĠD isc
' .
Ġwe ak
Ġmov ies
Ġhe aring
Ġbatter y
ch t
Ġw ir
Ġchem ical
Ġst one
ĠD E
u z
G B
ĠMus ic
P C
S ub
Ġj oy
Ġfail ed
Ġocc up
Ġsim pl
Ġess ay
Ġcon sequ
Ċ ĊĠĠĠĠĠĠĠĠ
ow a
ord s
Ġr an
e per
ĠM ach
ĊĠĠĠĠĠĠĠĠĠĠĠĠĠĠĠĠ ĠĠĠĠĠĠĠĠĠĠĠĠĠĠĠĠ
Ġhe ll
c ia
Ġcor respond
Ġfe es
Ġwin ning
Ġmach ines
Ġfield s
ĠO per
Ġprinc ip
c an
Ġn one
Ġro of
ual ity
Ġin n
Ġlov ely
Ġf le
Ġenvironment al
ĠT im
Ġfriend ly
ĠG ame
ĠInst agram
Ġsp r
Ġadminist ration
ĠH ill
F e
tr ans
T IT
Ġappreci ate
Ġexc iting
ĠD en
Ġse vere
æ ŀ
Ġl augh
Ġar ray
Ġcris is
ĠKe ep
Ġl ibrary
Ġbut ter
f in
Ġaspect s
Ġcour ses
6 7
ric s
Ġfix ed
Ġbe i
Ġrad io
E nt
F A
Ġvol unte
Ġparticip ants
Ġtra v
Ġtrad ing
ĠE ner
S ee
Ġin vent
ĠD iv
at al
Ġfor ces
ol ve
ĠTechn ology
in ations
Ġpay ing
Ġg od
ren cy
In fo
ĠAb out
Ġun its
k u
Ġanal y
Ġc m
Ġth read
em a
n ic
Ġz e
Ġres ource
Å Ħ
L og
Ġgu ests
Ġc ities
Ġprov ider
Ġkind s
ĠMed ical
Ġsur vey
j s
ab et
Ġrespons ibility
L C
ĠC A
An y
Ġbus y
Ġsc r
r m
Ġcircum st
ĠFr ank
Ġfant astic
is co
Ġfeed back
Ġv irus
çĿ Ģ
st ream
Ġexam ples
Ġimp ress
Ġac id
ir ty
V E
ell s
ĠGerm an
Ġclos er
p arent
Ġob lig
Ġdoll ars
Ġch annel
Ġbro ken
Ġbel ong
Ġf uel
Ġtell ing
pl oad
Ġbe ach
ĠS and
if ier
Ġsu it
ĠM el
Ġcult ural
Ġcol umn
Ġman ner
Ġpers pective
l ong
red it
w ing
è ´
is a
oc ument
Ġsou l
ĠN OT
all ed
Ġo t
ĠI d
re ens
èĩ ª
Ġâ Ĥ¬
ĠD ou
ç º
19 1
Ġv or
ook s
Ġloc ations
ester day
ĠInd ust
ĠAcc ording
éĩ Į
Ġc ir
j o
Ġl ui
Ġdes cription
ĠR est
Ġapp arent
åı ¯
ĠM ain
ĠE arth
lic ation
b b
P e
Ġarg ument
ust er
ĠT er
Ġpull ed
ere nt
m ap
â Ħ
Cl ass
Ġg ather
Ġw ie
ĠH a
Ġprom ote
T A
Ġs es
ĠGerm any
M od
Ġtrou ble
Ġredu ced
Ġemer gency
it i
R el
V ER
ĠPl us
Ġart ists
ĠIn vest
Ġprep are
Ġs outh
ien e
Ġsol o
: =
Ġdisc overed
ol ars
ar row
() )
D ef
ion i
pt ions
qu es
y an
ĠC EO
Ġspe aking
éģ ĵ
it en
Ġbro wn
Ġwind ows
TIT LE
Ġreg ister
Ġconsider ing
P E
Ab out
Ġwrit er
P R
Ġcor porate
ph as
Ġpur pos
6 00
bs ite
er ia
Ġhy p
Ġag ent
Ġfail ure
os es
Ġme re
Ġmil k
ĠS ign
5 1
Â °
Ġp ued
Ġh ate
ĠD ownload
Ġper man
ib ilities
ĠWe ek
d raw
Ġf ruit
ul s
ĠL ast
on ym
ri ble
ĠM aster
Ġp ump
Ġf ing
Ġconf idence
ĠN Y
ĠS on
ian a
æ ¯
ĠP et
Ġadult s
//// ////
Ġfor ced
Ġme at
Ġyou th
Ġt ab
Ġcomm e
Ġw ire
ĠO ld
Con fig
Ġcomm itted
| |
c al
ive red
Ġen able
ac le
Ġbig ger
ĠD uring
Ġt ables
ab e
k et
Ġm arg
Ġsign ed
Ġwe aring
ĠEn ter
ce an
ĠBe ach
enc ia
y cl
Ġal leg
Ġf ro
Ġsam ple
O C
Ġdistribut ion
Ġupd ates
Ġw y
Ġconf irm
S ource
Ġso le
p age
T C
Ġpr ay
ĠSupp ort
Ġdel icious
Ġdetail ed
com es
ĠComm ittee
Ãª me
äº İ
Ġst ars
ĠP ack
re c
F L
hens ive
Ġdeterm ined
: \"
Ġl i
Ġsh ock
Ġsong s
ĠE qu
ra v
ĠB uy
å ī
im m
on na
ant ee
ult s
Ġc i
or ation
Ġtechn ologies
Ġp ed
ĠRuss ia
Ġt ag
u is
ĠCont rol
Ġ iron
Ġemploy ee
ĠO ffic
ag on
enc ing
z t
g ent
Ġt un
Ġprovid ers
ad ian
ĠAmeric ans
Ġappear ance
ĠF ind
S er
ĠPar is
Tr ans
l ink
Ġnot ed
Ġe lection
ĠU k
ĠF und
ĠSo ft
Ġautom atically
Ġord ers
Ġh urt
Ġa id
ĠT imes
b urg
ĠCh icago
Ġequ al
Ġt or
Ġbl ess
ĠHe ad
l ast
Ġsh ipping
ĠA ccess
Ġk ing
Ġbring ing
p erson
Ġte a
umm ies
5 4
Ġepis ode
P ress
Ġb le
i pl
D S
Ġsurg ery
Ġlo ans
Ġrec overy
ĠCon nect
Ġl ux
ĠH am
E vent
Ġwalk ed
u h
E m
ĠDist rict
ic ian
Ġt ough
! )
Ġbr ands
âĦ ¢
S ize
ber t
Ġre nd
Ġintrodu ced
ĠRuss ian
Ġcomb ined
sc ape
Ġco ach
Ġcar ried
Ġdat abase
Ġp iÃ
Ġdis s
Ġofficial s
ir med
com p
og ue
ĠGl obal
Ġvisit ors
Ġmess ages
S ervice
Ġrelig ious
ÅĽ ci
Ġsu itable
Ġinter face
Ġtr ig
It em
9 8
U E
im o
Ġinterest s
is che
ens ity
Ġserv ing
ap ed
Ġg est
T hen
Ġw al
Ġm ur
ort hern
Ġcy cle
Ġh o
Ġfre edom
ow ing
Ġpl ays
d y
5 3
Ġf if
~ ~
è¿ ĩ
Ġrese arc
Ġread ers
Ġperfect ly
ient o
Ġentire ly
Ġfollow s
Ġn orth
ĠDe v
ament o
Ġs ides
ĠA ud
Ġj ack
Ġdef ense
ĠNet work
Ġsqu are
Ġt asks
ĠPh ot
Ġn ur
os a
A ct
Ġviol ence
Ġre venue
ĠPol icy
us her
Ġconcern ed
ĠO F
Ġst re
ĠP an
ĠB ur
Ġf Ã¶r
Ġar rest
Ġinf rast
ĠW il
isc hen
P ath
Ġt ail
Ġc ere
Ġaut h
st ruct
Ġa st
ĠMan ager
Ġcitiz ens
l am
ĠV irgin
Ġemot ional
ĠDo es
ĠOb ama
Ġencou rage
S ec
Ġcateg ory
æ İ
os oph
An other
sec ut
ĠH uman
ĠUn ion
b i
Ã¨ re
Ġaffect ed
t op
Ġn ach
Ġfac ility
Ġsurpr ise
ä ¿
Ġent r
pre ne
Ġass ets
Ġacad emic
ing ly
Ġst ood
Ġgreat est
o z
Ġp ills
Ġconsum ers
U LL
W here
os ite
or i
Ġdec ades
Ġsee king
n oon
Ġv ary
Ġeffect ively
Ġfav our
art s
Ġph arm
ĠCong ress
Ġs ick
ers ion
Ġhappen ing
ĠM ult
Ġp ÅĻ
Ġoccas ion
Ġed itor
Ġlic ense
Ġansw ers
ĠPart y
Ġcon vert
Ġfl ight
Ġint ended
d f
Ġturn s
w as
Ġpurpos es
. [
M ost
ĠSc ott
Ġcre ation
Ġex cess
ĠI r
Ġme al
ars h
Ġconsum er
Ġbre ast
Ġind eed
Ġexpl ained
T ER
ĠW al
Ġreal ized
ĠI ll
g as
ĠĠĠĠ Ġ
Ġproced ure
Ġb order
Ġs orry
B S
Cl ick
Ġhigh light
b our
ĠP ass
Ġimpro ved
Ġnot iced
Ġveh icles
T ube
ĠAfric an
p ons
Ġon t
con fig
Ġn avig
ĠC ode
In ter
ig an
Ġd ass
ant o
Ġacc ommod
D r
ĠAN D
Ġslow ly
Ġinstall ation
ĠW all
av y
ĠG al
Ġsupport ing
ĠP eter
ck now
Ġc ette
Acc ording
Ġexpert ise
ĠJ ud
ĠThere fore
ĠLe g
Ġreturn s
Ġrep ut
Ġcl othes
Ġpl ate
Ġmass ive
Ġident ified
Ġsh oes
ro ad
ĠSer ies
A ss
R em
Ġfund ament
A A
igh ter
ĠJapan ese
ĠSoc iety
ĠL ink
Ġident ity
un s
ĠB oth
Ġindust rial
Ġhous ing
Ġem pty
ã ĥ
l ook
Ġinstall ed
Ġj ak
ĠH y
) {
Ġaud io
Ġt ur
Ġl ift
ĠTh omas
Ġscient ific
og rap
à ¸
Ġc ro
ut en
Ġh ur
Ġrem ote
erv es
c ar
ĠE U
ac hel
ĠAut hor
AT E
Ġrel atively
em porary
Ġtell s
Ġimp ossible
Ġfol ks
Ġfood s
Ġg all
ĠĠĠĠ ĠĠĠ
Ġappro ved
ap es
S ince
Ġmom ents
Ġinter pret
ult ure
G ener
a e
ad as
ĠInst ead
B ack
D is
Ġtw ice
s he
Ġvot re
Ġv ital
Ġdiffere n
19 0
Ġv ul
M ap
________ ________
Ġst im
Ġdesign s
Ġus ual
on o
ĠAt l
h us
Ġpract ical
Ġann ounce
ç Ħ
ob s
ĠW estern
Ġtre ated
ĊĠĠĠĠĠĠĠĠĠĠĠĠĠĠĠĠĠĠĠĠ ĠĠĠ
Ġst d
it Ãł
ac er
O ther
ĠRober t
Ġte eth
so le
ĠAd minist
Ġcl ar
Ġadminist r
Ġlaun ched
Ġarriv ed
b les
Ġmat ters
Ġm m
Ġrel iable
Ġwe alth
H A
ĠLe ague
re qu
Ġche st
Ġun iversity
% .
Ġn uc
ĠK ore
Ġcut ting
Ġtr uck
Ġat h
ĠCh amp
Ġdi am
Ġlik ed
Ġcont rast
ag g
Ġr u
Ġadvert ising
Ġf ly
p ie
l ength
ç Ł
Ġcomp onent
ah r
v y
E W
C L
çĶ Ł
Ġb read
Ġph ase
ol o
G r
Ġ icon
Ġch icken
Ġfrequ ently
Ġd ance
ĠQu est
M any
G ood
ot ic
ĠL im
end ar
] [
Ġj ed
ĠTh ose
and on
ĠE p
er d
Ar t
az z
Ġval uable
Ġass ign
Ġcharg es
est yle
es ch
ind ex
Ġeff iciency
Ġhouse hold
Ġte en
ĠO il
ĠC ost
Ġv end
Ġhor se
Ġb ike
} $
Ġpropos ed
Ġconst antly
k ins
ĠA T
Ġinstruct ions
ĠD ate
c ons
O nce
Ġwid th
Ġlight s
az e
ĠCas ino
âĢĻ .
ploy ment
ĠJ oe
anc he
ĠB it
Ġfore st
Ġbe ar
ing u
Ġl it
ĠDig ital
Ġapprox imately
lev ision
Ġdanger ous
anc er
Ġpriv acy
k es
Ġrout e
ĠD om
Ġr ough
w rit
Ġend s
Ġhealth care
v as
oc o
re al
is se
Ġmus cle
I O
ad ow
P M
Ġb are
Ġche ese
orm al
Ġcircumst ances
Ġplatform s
Ġcra zy
ĠN or
ij k
ere st
Ġcar bon
Ġinsp ired
ĠK now
Ġkeep s
or ough
Ġmiss ed
def ine
ĠLou is
18 0
Ġm el
Ġlay er
arr ant
Ġdel ivered
Ġpr ison
i ro
Ġg ambling
Ġturn ing
ann a
AT ION
on av
con nect
Ġgra b
Ġpick ed
end a
Ġmechan ism
Ġson o
Ġaccept ed
Ġdep art
Ġp ra
Ġhe ro
Ġi Phone
B est
Ġdest roy
ĠV ideo
Ġalc ohol
Ġj est
ĠHist ory
m ax
ĠM useum
m at
Ġpro of
Ġhundred s
Ġspe ech
ush ing
ĠVal ley
Ġsitu ations
ĠV ict
ĠR ight
Ġre n
Ġfun ny
F ig
he red
a way
Ġl ad
bl og
ĠSec ret
Ġd ivid
Ġafford able
Ġc ute
ĠT able
ĠE conom
Ġprem ium
Ġagre ed
Ġt ak
ç «
Ġch a
E E
ar ia
Ġt iss
Ġout door
Ġsurpr ised
ab a
Ġis ol
b uild
Ġprof it
Ġs umm
ĠL uc
Ġinf ection
Ġw itness
ĠA ff
Ġl unch
ĠL ive
Ġch ose
Ġh ung
Ġcook ing
ĠRe v
Ġcab in
Ġgood s
Ġhab it
Ġde i
ĠJ im
g t
ĠM A
Ġsupport s
Ġtop ics
S im
ĠMin ister
Ġch osen
ĠO N
Ġn atur
am ple
Ġhad n
Ġsl ots
Ġg aming
ic an
Ġw et
Ġinfrast ructure
Ġe lev
ĠKe y
A tt
' );
7 9
Ġm g
Ġk ne
Ġmonth ly
ĠJ ose
Ġdo ors
semb ly
Ġpay ments
Ġdis h
Ġany way
\"\" \"
Ġrepl ace
ot ed
c ount
Ġmot ion
i ert
% )
ra id
in fo
Ġdom ain
Wh o
Ġdifferen ces
ĠAcc ount
Che ck
app ed
t ed
fl ow
H and
Ġwor st
in ch
Ġint ent
Ġg rown
Ġst er
ĊĠĠĠĠĠĠĠĠ ĠĠ
( !
Ġext ract
Ġv ast
Ġp ill
ord ers
ab il
U P
Ġregular ly
Ġe ar
Ġhum ans
ok ing
Ġem phas
Ġh un
Ġincred ible
Ġpattern s
Ġg rew
!! !!
es h
S u
B uild
Ġcommit ment
Ġl au
Ġcol our
ĠH en
Ġm and
ĠB on
Ġobject s
Ġmed icine
Ġth in
xt ure
Ġaut hent
is ters
Ġter ror
Ġsp ons
Ġw ird
ĠW ay
Ġafter noon
c ore
rib utes
j et
i ors
w ar
Ġris ks
C ount
Ġwhe el
Ġex ternal
Ġf ait
anc ial
uc ks
b ra
Ġsp in
MA IN
av en
Ġpos itions
Ġat m
ag ra
ik ed
or ith
Ġn urs
E qu
Ġch ocolate
ĠJ o
ĠS qu
leg al
ĠC reat
b el
ĠAn other
Ġpass word
Ġfeel ings
ĠP ot
Ġt aught
os c
U M
ĠF ort
Ġbeg ins
act ory
Ġbirth day
b ur
Ġi h
N ode
Ġneighbor hood
Ġconst ant
> </
E X
Ġtechn ique
Ġrem aining
Ġp ic
Ġinstitut ions
Ġpro ve
Ġsk y
Ġsy nt
ĠK it
ĠL as
Ġserious ly
Ġp il
Ġtyp ical
m i
itut ion
ĠT erm
oo lean
======== ========
ri or
Ġincre ases
ä»ĸ ä»¬
ut il
Ġh all
ir al
ĠL ab
ĠAs ia
u ated
Ġanx iety
ov ed
Re quest
Ġaccur ate
Ġadv oc
Ġcare fully
che ck
Ġh ref
Ġinvol ve
Ġleg s
Ġpark ing
Ġwat ched
Ġu pper
Ste p
Ġgener ate
C ons
ĠA p
l ines
ĠCont act
ĠNe xt
le ep
f a
7 2
if er
ĠN one
Ġliqu id
H T
Ġphot ograph
Ġall a
ĠT re
Ġreve aled
Ġtrans ition
Ġsw im
Ġwall s
Ġbrow ser
Ġsur f
Ġfac ilit
r un
Ġs ight
C D
ĠSt at
u ing
ĠSec ond
ol i
ĠW ild
ire ment
ĠBl og
Ġbas ically
ific ate
Ġshould n
R L
M ed
ĠB efore
T op
Ġinc hes
Ġlos ing
Ġguar antee
ĠEner gy
Ġorgan ic
Ġo l
æ µ
ant i
Ġsp oke
em p
Ġc ake
Ġhistor ical
st ra
Ġeduc ational
Ġdescrib e
ĠP rem
amb i
Ġsuggest ed
ĊĊ ĉĉ
.. /
Ġw ra
Ġg ent
Ġcr ime
ĠCh arl
Ġdist rict
is ch
ow nt
Ġcap able
ĠT our
Ġel ig
ber ry
ok es
u est
Ġsupp lement
. âĢĻ
Ġg am
clud ed
Ã© l
Ġis land
D ate
Ġregist ered
ĠS ar
Ġobtain ed
Ġsk ill
ry pt
ear ning
f ortunately
Ġde als
il a
Ã ®
Ġposs ibility
Ġpl anned
ell es
æ Ľ
Ġcompre hensive
ĠC oll
um ps
Ġcrit ic
x x
ĠSte p
Ġinvest ors
] )
ol ved
le ts
z ym
ult y
ĠYou Tube
ĠA ward
Ġz ero
Ġboy s
Ġcru cial
t Ã
Ġd ar
ĠWill iam
ĠY O
ĠS P
ĠHot el
Ġrece iving
g ment
e ur
Ġd ont
B O
ans ion
Ġre new
' '
F ree
Ġmanufact uring
Ġproced ures
Con text
Ġrec on
Ġy esterday
ert s
or al
å¦ Ĥ
an ish
Ġa cknow
St art
æ Į
Ġdep th
pack age
T able
: //
Ġconven ient
C S
Ġmag ic
ĠC ast
Ġdef end
w est
ã Ĥ
ik i
G reat
ĠD id
au c
Ġfight ing
ĠN ame
ri z
ch i
et her
Ġdeg rees
ĠC e
Ġdri vers
Ġcomm ission
ir ms
b ro
Ġcent re
Ġflow ers
ĠMarket ing
Des cription
ĠG ar
ÈĻ i
ĠA R
ĠGu ide
Ġdist inct
Ġfil ms
Ġauthor ity
ĠUs ing
Ġdel ay
Ġsu c
Ġn ine
ĠA D
iver se
æ ´
ĠH D
Ġdis pos
Ġco vers
ĠÃ ª
Ġinnov ative
Ġchalleng ing
Ġhe l
l ights
Ġassess ment
Ġdi verse
ĠC ert
ple te
Ġext ended
ole c
Ġoffic er
Ġparticip ate
in it
ol ar
i h
Ġbuild ings
or able
Ġdro pped
G l
Ġd raft
Ġs ig
i ÄĻ
DO MAIN
Ġt iny
Ġm ob
ren ce
up id
ĠH ard
Ġpur s
Ġsil ver
Ġtest ed
çĦ ¶
Ġr ig
ik a
å¤ ļ
ci ples
Ġsh ares
Ġcomp ens
Ġperson ally
Ġgr ade
Pro duct
z ed
E ven
Ġy a
ra ine
C all
Ġcr ack
Ġprom pt
el ly
Ġsh it
ar ian
ç ¥
ear ing
por ation
Ġreason able
Ġgr at
Ġsome where
Ġelect ronic
ot i
Ġhold s
ĠW in
ang le
at re
Ġaff ili
Ġobvious ly
Ġcan n
H O
æī Ģ
Ġcandid ates
ĠF un
onav irus
Ġre ward
Ġre action
R S
ond er
ĠÃ¤ r
Ġlist ening
orge ous
Ġe le
H ave
Ġver t
n am
Ġcook ies
oun ter
S m
op en
Ġins pect
ĠG irl
Ġaf raid
Ġst orm
Ġrecogn ize
Ġmix ed
Ġfact s
Ġmill ions
g ener
Ġto d
el come
ĠV an
ĠAr ts
Ġfour th
ĠT own
M O
Ġfor th
Ġrecogn ized
Ġag g
Ġconsist ent
Ġplan et
Ġdep ends
ĠM S
ht t
ĠF urther
Ġb at
Ġf asc
ĠC y
6 2
Ġdisapp oint
Ġc ock
osp here
Ġre ject
Ġk iss
ch ing
Ġengine ering
ĠG all
Ġsp aces
pec ific
Ġhy per
ann els
Ġfair ly
l ie
ĠH ospital
Ġy ellow
Ġimplement ation
Ġb odies
ĠC ur
Ġco ast
Â ¿
m g
Ġabs or
in en
ĠL ib
ĠWh ich
Ġpro ceed
st art
Ġgu est
Ġimprove ment
ĠO p
ĠL ibrary
Ġaware ness
Ġbo at
ĠE t
Ġjust ice
Ġp it
Ġful f
Ġun able
Ġsau ce
Ġauth ors
G o
ãĢĤ \"
um a
ĠB u
Ġsudden ly
h an
af e
Ġman ual
D et
çĶ ¨
ĠMart in
Ġein en
ĠE ll
ious ly
ĠM ike
ĠP oint
Ġfurn iture
Ġbreak fast
Ġdiscuss ed
Ġm ai
Ġworld wide
Ġab use
Ġunder st
ail ability
ac iones
Ġs essions
M odel
Ġvul ner
Ġobs erved
ĠWhe ther
ĠMex ico
a us
Ġcompet itive
Ð ¸
Ġso bre
ÅĤ a
Ġp ens
Ġregist ration
Ġdefin ition
Ind ex
c ell
fr ont
Ġyoung er
Ġconf irmed
ĠCent re
Ġshould er
Ġiss ued
Ġvisit ing
} }
Ġattack s
çİ ĭ
Ġp Ã¥
ĠW atch
Ġro w
æĪ Ĳ
Ġaccess ible
Ġsuccess fully
Ġconduct ed
ĠF ederal
yp es
ĠJohn son
Ġcas inos
Ġm ad
ĠCh ief
ob by
M essage
ul f
åĨ Ľ
id ers
Ġrecord ed
r ition
Ġfing ers
Ġple asure
st ar
Ġag ents
T R
ĠChild ren
Ġp ul
ĠB ible
qu ality
Ġte ch
ĠJ un
Ġh ier
Ġa uss
ĠP age
Ġfac ing
Im age
Ġpurch ased
ĠP rom
Ġp hen
Ġch ief
Ġsu fficient
Ġsubst ant
ot ton
ect or
ĠCon ference
å¤ ©
Ġbott le
è¡ Į
Ġco oper
Ġinter ior
Ġn ative
ĠB ox
Ġresist ance
Ġcrim inal
B r
Ġk Ã¶n
ĠC ath
Ġb ond
g roup
ĠW as
c or
Ġfa ire
ĠH aw
Ġmod er
Ġpre f
Ġt all
T O
Ġreport ing
F ield
Ġstud io
Ġill ustr
Ġstand s
ost on
Ġrel ief
s en
Ġhous es
ast e
Ġexp osure
ĠAng eles
6 1
ist ant
on to
ĠO l
ov id
O ff
ĠS at
Ġent ered
od ing
Ġpub lish
Ġany more
ri o
ĠF ig
Ġh idden
ĠL u
Ġl iv
Ġz ijn
Ġn arr
ĠEx ecut
ĠCh ris
N S
ĠR oom
Ġinvestig ation
ro t
Ġpresent ation
èĢ ħ
um es
Ġein er
un n
cl aim
abet es
A meric
B I
ĠU t
Ġbath room
on ly
Ġcomp r
ĠK n
ĠS n
ut o
U ser
Ċ ĊĠĠĠĠĠĠĠĠĠĠĠ
P oint
ĊĊ ĠĠ
r ich
ĠGe org
Ġbet ting
Ġbelie ved
Ġexecut ive
t able
ĠC ross
Ġd rag
ĠS i
Ġbu ff
F T
ĠTh us
Ġn ob
#### ####
Ġass ume
Ġext ensive
Ġg ender
Ġag encies
Ġreg ional
at en
ĠPh ys
au f
Ġf ont
Ġv eter
M ar
Ġter rit
6 3
fol io
i ac
Ġrestaur ants
Ġh ang
Ġj ew
Ġtr ick
Ġeng age
$ {
ĠG ra
Ġr h
ell en
ĠN ote
Ġv a
er ror
Ġok ay
ĠC ook
Ġresearc hers
ĠM ur
åħ ¶
Ġdem ocr
Ġdr am
Ġle an
Ġa an
ĠLe e
Ġra w
Ġsign al
Ġhyd ro
10 1
Ġd ad
Ġmain ly
b orn
if est
Ġlov es
cha ft
Ġvill age
Ġcol le
Ġdes c
ant es
Ġnorm ally
om an
ou p
Ġter r
Ġant icip
ak t
ĠB ow
Ġmeet ings
Ġon going
Ġin ner
ĠB oy
Ġevery day
ĠP ac
Ġcandid ate
Ġno ise
Ġz um
ref erence
ed ly
im ents
ĠS ports
r ated
ĠPro cess
Ġpow der
Ġtom orrow
ut ter
w w
Ġk m
Ġs izes
ens ed
ĠE vent
Ġguid ance
ĠHel p
ĠÃ º
Ġpain ting
8 9
Ġcons cious
Ġspirit ual
st en
Ġs el
ol it
ĠJ on
Ġdel ight
st yle
Ġtick et
ĠA S
p y
å £
ĠD a
Ġk ann
Ġas ide
Ġwere n
Ġnet works
Ġoffic ers
ĠT ax
V is
Ġill ness
col or
âĢĻ ,
ĠOr der
Ġv oc
è °
Ġguid elines
ĠTh rough
ail ed
ĠA rab
aw s
ĠC up
Ġbed room
Ġd ent
Ġqu el
Ġobs erv
Ġexpect ations
Ġout comes
[ \"
st one
Ġlink ed
ĠSpr ing
F C
F i
f unc
ato es
Ġgen u
ĠCan adian
Ġb anks
ĠE ss
Ġmo ist
åı ĳ
Ġsearch ing
Ġl ips
Ġtempl ate
Ġport ion
ra it
Ġemploy ment
if orm
Ġri ver
Ġla pt
ĠCom ments
ĠM ill
Ġsupp lies
ĠLe ad
Ġe ase
Ġbas ket
ĠItal ian
ĠM O
ism o
em e
Ġtax es
ir ts
Ġposs ess
ĠG ames
ĠF ollow
Ġe uro
ĠTra ining
ĠL ook
Ġf i
ĠH ope
Ġrout ine
Ġf ellow
Ġmonitor ing
Ġcho osing
ĠN ight
Ġsol ar
se re
C P
Ġinnov ation
int s
Al though
b ase
il ly
ĠAcad emy
ĠN umber
Ġfl av
ex p
d b
ĠM ov
ĠK en
Ġa qu
Ġprom ise
ĠH or
Ġover w
ai res
ĠC arl
Ġhop ing
e xt
ĠR ose
if ies
Ġpro ven
Ġso il
c reate
ĠInt e
Ġsubm it
ro g
Ġsustain able
ĠCom put
åİ »
ĠDan iel
Ġes p
ĠP R
form ance
Ġadv is
Ġsub t
as ant
f oot
Ġcollabor ation
ĠC H
ĠS earch
ĠP enn
Ġz one
ĠWe ight
Ġro se
ra ction
Ġm Ãªme
Ġsav ed
G O
Ġregul ations
Ġcreat es
Ġo h
force ment
ĠB al
Ġsurround ing
Ġcharg ed
ĠM id
u an
Ġtick ets
Ġn arrow
( @
Ġbe er
Ġl ady
H er
è ·
empl ate
Ġoper ate
1 10
Ġt ub
Ġfore ver
ĠðŁ ĺ
ĠEx pl
Ġdeal ing
a a
ograph ic
Ġvers ions
Ġr ic
Ġte levision
ann o
å ķ
Ġw arn
Ġle ur
Ġentre prene
ãĢĤ (
res ents
Ġconflic t
C ode
st ep
ĠYou ng
i ams
Ġbow l
% ,
Ġth orough
Ġread er
Ġy ield
ag ues
Ġwhen ever
Ġch apter
Ġv ie
Ġtra il
Ġeng agement
ĠW alk
Ġmin i
Ġup coming
Ġredu ction
Ã¤ n
im age
R et
Ġz ur
ter ior
äº ĭ
Ġsuff ering
é ¢
ĠF air
T oday
Ġ ÈĻi
Ġtalk ed
uff er
Ġn il
Ġanc ient
ĠVirgin ia
Ġres olution
ĠSp irit
du ction
u v
I ST
Ġlik es
ĠCarol ina
Ġbl ank
Ġdom estic
çľ ĭ
r Ã
Ġe leg
ik es
Ġopp osite
Ġsol ve
J ohn
om y
ĠCont in
{ }
Ġn el
or gan
Ġcompar ison
ool s
Ġadd s
Ġrelig ion
Ġconf ident
Ġforg ot
Ġd ell
. <
Ã¤ nd
å ĵ
ĠB ed
ĠSh are
Ġimm ig
im p
C ar
Ã© g
ĠSh ould
Ġclos ely
Ġpass ing
Ġst uck
I l
ĠF estival
N ote
B efore
K E
Ġt ank
ch ain
i ar
Ġcomp are
ĠTr ust
Ġs ed
Ġpartners hip
Ġk tÃ
Ġrel ative
Ġph r
r ick
er k
Ġsuggest s
im er
Ġinter act
enn is
U t
AL L
ink ing
ĠL O
le ft
Ġgr an
rib e
Ġbr ill
ĠA I
Ġphil osoph
ĠT em
ĠL earn
ast a
Ġhost ing
ĠPol ice
upp ort
Ġatt orney
RE E
é Ľ
Ġp apers
ĠL in
ĠJe ff
ĠSt ore
Ġorig in
ĠN ever
Ġcons erv
H S
ug s
ĠD er
åī į
Ġt ack
yt ics
Ġdec ent
row s
M E
Ġgr ass
Ġsub sequ
Ġn ode
Ġdisc ipl
ĠP A
Ġluck y
M on
Ġcollect ed
Ġt one
Ġpolit ics
Ġwas h
ĠM ic
Ġf er
Ġre act
ar ks
Ġsome what
Ġinj uries
Ġfound ation
Ġcont ribute
CO N
ĠRich ard
ĠS ite
ĠD C
Ġl ip
roll er
P L
Ġs um
Ġintellig ence
ĠT ry
ĠP o
ĠD og
m ond
Ġs yn
è ¢
Ġcat al
ass ert
ex pected
ari os
ĠH on
Ġmount ain
Ġh ook
Ġlif estyle
st al
Ġg ay
p c
Ġm ol
Ġjud ge
Ġa Ã±
H is
Ġimmedi ate
it is
Ġfig ures
im ize
ĠW orks
Ġinform ed
ou ch
Ġk om
ĠP op
Ġentertain ment
Ġpre v
elt a
æ ±
Ġm ask
Ġprot ocol
oid s
Ġc es
ĠItal y
Ġent hus
Ġpercent age
z es
ĠM odel
Ġfl avor
ch ar
Ġult imately
Ġresult ing
, '
S pe
â Ī
Ġd ates
V D
ch ild
èµ ·
ĠP en
ĠP ract
Col or
ie ren
ĠC lean
Ñ Ĥ
ĠĠĠĠ ĠĠ
ult ural
ĠW rit
Ġtw enty
B ook
eng er
Ġpart e
Ġown ed
ÅĤ o
as m
Ġk l
d ated
Ġdest ination
el ing
p i
ĠJ ones
ly mp
Ġspl it
Ġs ending
ly wood
ĠM as
Ġed ition
Ġinst ant
Ġshe et
he w
Ġcomp at
m ade
Ċĉĉĉĉ ĉĉ
h as
Ġwith draw
Ar ray
æĹ ¥
Ġal ive
Ġexpl an
ste in
Ġform ed
Ġhard ware
qu ir
äº Ľ
Ġlet ters
hold ers
al o
ĠPl ace
Ġhon or
Ġqu ote
ĠB udd
Ġan che
Ġstr ange
Ġr ou
Ġstrugg le
Ġnecess arily
f all
å® ¶
Ġrem ark
og ether
Ġm erc
Ġshoot ing
Ġauthor ities
Ġinstr ument
ĠF arm
Ġap artment
Ġa x
ER S
ĠC P
Ġg ear
Ġein em
Ġper o
ang ers
Ġcamp us
Ġdeb ate
w idth
Ġle ather
Ġd ust
æ ¬
Ġorig inally
Ġconc rete
Ġexist ence
ob ject
Ġex clusive
ic ity
Ġtra ined
i ences
ig inal
Ġdraw ing
ĠP ak
l abel
G A
æ ģ
ĠU r
ĠAg ain
ĠMc C
bre ak
Ġinspir ation
we red
Ġrep resents
ĠL ittle
ĠSom etimes
angu ages
Ġincred ibly
Ġimpress ive
Ġimpro ving
Ã ¬
Ġnatur ally
Ġf inger
Ġre form
m aking
Ġpot entially
Ġcont r
ĠProfess or
Ġw arrant
Ġ Î
` `
Ġappoint ment
Ġcare ful
as tern
ot he
ah l
Ġinc ident
Ġg ifts
Ġtrad ition
Ġord ered
n ames
Ġrepe ated
Ġath let
9 7
S I
ĠWe bsite
Ġca using
Ġst ake
Ġdec ade
ĠAustral ian
friend ly
Ġw ave
Ġd urch
p ed
Ġst able
Ġt ent
Ġu ma
Ġpe ut
Ġse ed
Ġext ent
ĠI re
ĠS E
bl ock
Ġarr ang
Ġrepl acement
Ġv el
Ġrecommend ations
ĠT urn
at ie
Ġgr ant
Ġgener ated
Ġdise ases
ĠN a
Ġfl our
Ġg orgeous
Ġdis m
Ġregard less
ru g
W ind
ĠC ond
Ġfin ance
ĠO k
ac her
ur i
Ġsch olars
ĠÃª tre
Ċĉĉĉĉ ĉ
Ġequ ival
id ays
Ġf ault
ĠSm art
Ġd ining
de v
( {
O K
z ione
Ġframe work
d s
Ġsubs crib
w orth
ĠB all
Ġto w
ĠTra vel
Ġc oc
ie re
Ġch ances
ÃŃ t
Ġst rict
J e
Ġwh is
Ġ riv
Ġalg orith
Ġappe al
Ġwid ely
Ġem br
te en
ĠS ales
Ġhead s
Ġst ro
ri j
ath an
D ie
ul ing
Ġk an
ĠC at
Ġmov es
æĹ ł
ud es
ĠF ac
d ep
Ġj ava
ĠL ow
Ġel le
Ġgl i
ĠY et
L ove
ĠEngine ering
çļĦ ç
ĠJack son
ĠI de
Ġext reme
ack ing
Ġne ut
Ġtrend s
Ġag es
Ġmus ical
Ġrefer red
ĠDet ails
D irect
Ġfeat ured
ĠP ut
R C
et ch
Ġdes ired
Ġbro ke
Ġben e
Ġro les
ĠReview s
ĠSe lect
Ġliter ally
ut ch
Ġc in
or ters
ab s
Ġauss i
b et
s ource
u ous
Ġal ign
Ġorgan ized
ateg ory
Ġnear by
Ġb unch
u je
Ġcont est
Ġag ric
Ġr ating
Ġh ire
ist ed
Ġn ic
ĠSp anish
Ġhas n
N et
Ġin ject
it em
Ġre in
ĠY eah
Ġcapt ure
ro ph
ĠL ine
Ġg re
ĠR a
ĠM iddle
ĠAre a
er ies
Ġprim arily
Ġhard er
ĠA L
S D
erm an
Ġev il
G u
ĠC reate
Ġc able
ĠRet urn
Ġform al
Ġestim ated
ha ust
Ġlim its
ä¸ İ
w ind
T P
Ġgent le
Q L
H el
in ent
el lect
ĠR en
Ġst upid
n ÄĽ
on ic
ĠFin ancial
Ġt ourn
lic hen
ans as
Ġur ban
Ġc odes
Ġad s
Ġ q
u ct
ĠCl in
arg s
Ġamount s
Ġoverw hel
T Y
Ġwin ner
st atic
Ġext ension
Ġb ool
Ġst om
. </
ĠB es
Ġintegr ated
kt op
Ġatt ached
å Ģ
Ġserv es
ĠF ar
Ġyour s
ĠF all
Ġcl othing
Ġdis cl
Ġu pload
Ġadvent ure
Ġless ons
Ġus age
ĠD O
Ġb is
Ġmem ories
ĠEn vironment
Ġdrink ing
Ġform ula
ĠWord Press
ĠChar les
ĠF riend
Ġbl ind
Ne xt
Ġno ch
Ġg el
Ġle ct
uck y
Ġsus pect
Ġrec ipes
Ġdevelop ers
Ġâ Ĩ
ĠB oston
Ġton ight
Ġt rem
Ġwond ering
iz za
Ġprin ciples
ĠCon f
Ġgot ten
ĠI ran
ĠV ill
B ecause
ast s
Ġl oud
be ing
end ers
Ġg olf
: (
out e
ce ived
Ġdyn amic
Ġstrateg ic
Ġunderst ood
Ġex ists
Ġfl ood
Ġdel le
Ġsty les
ug ar
word s
Ġsc an
a ud
Ġvac ation
ap ing
æ ¸
F I
Ġf u
G e
Ġhe aling
gy pt
i u
Ġsh ower
ĠMus lim
ĠR oyal
ient e
ri ver
Ġmanag ing
Ġb acter
Ġflex ible
ĠU lt
è¿ ĺ
Ġdream s
Ġcoun sel
less ly
ĠPerson al
Ġvis ible
C ustom
Ġr ice
Ġfundament al
ĠJ ac
Ġperman ent
Ġpros pect
ĠR un
ç Ń
ov es
Ġdes k
Ġconnect ions
Ġcateg ories
Ġcal m
ĠMe et
Ġs ans
it age
æŃ ¤
Ġsuc ceed
ĠSystem s
vers ion
Ġk on
ĠFranc isco
Ġerr ors
Ġne ither
w an
Ġb orrow
Ġdef e
Ġsched uled
Ġearn ed
ĠExecut ive
v ision
Ġland scape
Ġt ired
ĠM P
br id
Ġpe u
or o
od a
Ġexp enses
ĠAs ian
Ġch art
Ġch arm
z il
Ġth ro
Ġg ummies
Ġout come
Ġmort gage
+ =
Ġfavour ite
n Ã©
ĠD ark
Ġlight ing
Ġachie ved
Ġrem ained
in ity
Ġpo ker
Ġwrit ers
Ġch annels
æł ·
ĠD am
ĠS ale
Ġinvol ves
Ġest Ã¡
m os
Ġcommon ly
ĠV ery
L iked
ah a
Ġp ink
Ġpers ons
Ġbut t
Ġfl ash
Ġm ood
Ġset up
Ġf ishing
at z
Ġme als
Ġevery where
and e
Ġfac es
Ġatm osphere
Ġcelebr ate
Ġredu cing
Ġto x
8 7
g ie
com fort
Ġp el
^ {
F ind
ak a
ĠSt ill
ĠSoft ware
Ġz a
é ļ
ht ml
ĠL td
ĠAut om
ĠS anta
: -
f Ã
Ġreg ions
Ġstrong er
p es
ĠNe ed
D P
S W
G roup
Ġar ts
Ġfind ings
Ġnew sp
ĠL A
F il
AC T
ĠS uch
Ġprefer red
Ġf est
ĠN ULL
Ġexp ressed
y ard
ĠE in
ĠP DF
ĠA C
Ġpl ot
Ġexpl ains
ĠSm all
Ġacc eler
Ġg ut
Ġd it
ĠQue en
ĠMach ine
olog ist
Ġsh arp
Ġsuper ior
ay lor
er as
Ġrat io
Ġsens itive
og y
Ġc el
ĠU ser
âĢĶâĢĶ âĢĶâĢĶ
Ġconsum ption
Ġegg s
t w
Ġv ibr
Ġpoint ed
Ġj un
Ġcount y
ĠM rs
umm y
az a
Ġcre w
ç§ į
M in
Ġil legal
l ier
Ġhab en
Ġun l
it ate
Ġconc er
ĠM aterial
ĠTh ree
ĠM obile
Ġneg oti
am ber
7 00
Ġdirect ed
ĠS up
Ġst ead
ut ure
Ġb ab
r ont
ay a
ers hip
re ction
Ġact ing
ĠF ile
Ġn iet
ar ry
ĠO S
ain ts
ist e
Ġris ing
Ġfit ness
m odel
Ġcomm ittee
ĠIns urance
W ill
Ġcharacter istics
Ġprogram me
Ġleg it
Man ager
è Ī
b ing
ter y
Ġparam eters
ĠWill iams
Ġmere ly
Ġsam ples
16 0
Ġd ess
Ġcontrol s
D R
ĠSte ve
aw a
Ġnuc lear
Ã¡ t
S l
Ġstruct ures
c ut
r ac
le m
Ġple ased
Ġsac r
Ġelig ible
ĠSp ace
J an
Ġcompl icated
Like Liked
Ġweek ly
Ġsurpr ising
Ġincreasing ly
ĠE N
Ġc her
rodu ction
Ġfunction al
Ġreput ation
Ġg ard
Ġvict ory
Ġdef ine
pos ition
å ģ
ĠCl oud
\"> <
ĠCh air
ĠL earning
Ġpr ime
ĠStud ies
F O
Ġrequest s
Ġbl ocks
ĠT ri
Ġmembers hip
Ġle ts
Ġdo ctors
D ownload
Ġconsider ation
Ġcrit eria
w orld
Ġoccur red
Ġd uty
Ġf ond
it als
Ġn as
u rop
éĿ ¢
Ġde ck
æĪ ĺ
1 30
St ud
b ow
Ġb ags
ep ing
Se lect
ĠA us
ä» İ
y es
ĠI ra
Ġmanufacture r
ĠH im
ĠH T
et ry
Ġcont ro
Ġy e
C al
Ġfall ing
ĠT al
Ġprior ity
ĠS us
Ã© ri
ĠMed icine
Ġcheck ing
ĠS EO
clud e
an es
Cont act
U se
ap ore
ĠS ize
Ġcap abilities
en za
c urrent
Ġfl ag
Ġra il
Ġrep ly
our se
ific ial
ĠdÃ© c
æĪĳ ä»¬
Ġattract ive
ĠSt ock
n ode
ĠC a
U I
ĠI h
Ġest a
Ġc z
Ġant ib
ĠB ob
Ġthous and
ĠUn ivers
é ķ
Ġcommun icate
o at
ĠF our
Ġw est
let ter
ix ed
gg ed
Ġperform ing
ad ed
Ġor ient
Ġn ose
s ch
Ġlog o
un icip
Ġkn ock
ĠR oll
ind a
t ra
aj Äħ
Ġk il
M C
Ġh ole
ĠM ap
yl v
iam i
Ġd ownt
ĠO lymp
Ġexp osed
Ġstre ets
et ary
Ġh ide
lic he
E xt
8 6
iz ar
y ers
ĠF ield
Ġaccompl ish
Ġguar ante
ĠM ir
ound ed
int age
as se
Ġappro val
Ġacc ord
Ġvacc ine
Ġl ies
Ġw is
Ġtreat ments
se ction
ap i
ĠSil ver
Ġrepl aced
ov a
ĠkÃ¶n nen
Ġtal ks
Ġs aving
Ġprincip al
m al
ĠMich igan
D uring
p ay
E ach
ĠB ul
ions hip
ĠS ci
b ie
w i
Ġstreng then
Ġenjoy ing
Ġst ored
ĠIre land
ri ers
c ie
ĠBr and
Ġfuck ing
Ġliter ature
Ġact s
Ġadvant ages
Ġlaw yer
ĠL E
in put
amp s
Ġeng aged
Ġins ight
Ġwe ird
Ġcl imb
ent er
enn y
å Ł
T V
or ce
Ġstat ements
Ġass et
Ġmanufacture rs
ĠÃ©t Ã©
Ġwant ing
Ġmin imal
Ġbox es
Ġp s
E ng
Ġp ubl
am il
Ġar rive
ç ¬
å §
Ġvis ited
ĠTe xt
Ġext ends
Ġp ushed
ä¸Ģ ä¸ª
Ġweap ons
Ġmag azine
è ĭ
Ġn ou
vent ional
Ġeval uation
ĠJew ish
ĠJ ava
ĠT reat
ĠP sych
Ġmod ule
rop s
Ġemot ions
Ġst unning
Ġsome how
C R
Ġport folio
Ġesc ape
Ġp ocket
Ġle ague
Ġd an
ĠB ad
Ġb ij
ĠJust ice
pro of
Ġrec over
Ġlux ury
ĠN iger
ph a
ç» ı
Ġg onna
est e
Ġpod cast
ĠL ocal
Ġout standing
( &
ĠUS B
ial s
Ġsav ings
Over ride
ĠF A
Ġmat ches
Ġpres ents
( \\
Ñ Ģ
Ġt um
en z
ann y
ul ating
Ġconsequ ences
Ġcontroll ed
un es
ab eth
Ġdep ression
åĲ Į
Ġrec ording
ac on
St atus
be it
ist ance
Ġcarry ing
W ork
ent ed
IN E
Ġun known
s pe
AN D
H igh
ol id
s ite
Ġbr idge
riv es
ĠS outhern
F ollow
Ġapparent ly
Ġshe ll
ĠS ex
.... ....
ĠR h
U B
Ġcont aining
ĠM ethod
ĠD ar
Ġdo se
Ġhand ling
be red
ow ed
ate ful
E nd
h ist
Ġdeep ly
V er
ist ent
Ġev olution
d ir
Ġf irms
Ġtrans action
Cl ient
Ġadm it
Ġcont emporary
Ġbre aking
B ox
id os
Ġbelie ves
ic as
ĠS O
Ġocc urs
b u
ĠM it
Ġre ar
ĠS che
Ġto do
Ġa le
Ġp ace
Ġelect rical
Ġalong side
c ur
Ġind icate
9 00
Ġenter prise
Ġtransport ation
ir k
Ġevery body
Ġf ru
se ct
Ġstay ing
Ġflo at
z ing
Ġp ounds
ĠN O
val id
Ġqual ified
Ġpost ing
Ġsche me
Ġb er
3 50
the less
Ġrespect ively
âĢ¦ âĢ¦
Ġqu it
C reate
Ġimm un
ĠSaf ety
Ġin hib
ed e
Ġim per
We b
Ġt act
ĠBuild ing
Ġcompl iance
hem at
ĠR am
gh an
Ġult imate
Ġcol on
ĠPer haps
A Y
Ġplan e
EC T
Ġde eper
re ts
Ġm useum
ĠL ED
Ġbu ck
if ting
Ġins ert
Ġter rible
Ġperson ality
Ġn Ã£o
ĠCol umb
Ġo ven
ne ys
Ġb ol
Ġlat ter
ure r
Ġsuggest ions
Pro perty
Ġconfig uration
ĠH oly
v ant
Ġunc ertain
Ġde ux
Ġincor por
ĠC ON
Ġtiss ue
_ .
ell i
Ġthe rap
Ġun o
ĠCustom er
Ġappro aches
Ġsur ve
id i
Ġprepar ation
L earn
irt ual
Ġindust ries
Ġin ch
ed ing
åı ª
q l
Ġclaim ed
b oy
ru ck
3 60
Ġcomp rom
Ġn erv
ik ing
Ġabsolut e
ĠAr my
Ġdesign er
Ġcorrect ly
f ind
Ġcons ists
Ġorgan is
ĠHe art
Ġinter action
Ġhe s
ĠAnd rew
Ġe c
ĠK im
Con nect
w rite
ĠOh io
Ġex haust
ag a
Ġmist ake
ĠC redit
ĠR od
c ers
ĠF ather
Ġobject ive
ĠO R
m it
Ġlegisl ation
ĠAut o
ĠC ase
ĠO K
AR S
Ġwor ried
o j
ĠDis ney
ru ption
Ġman ifest
Ġmur der
ĠWith out
D id
ĠLe vel
Ġpr zy
form at
el i
Ġret irement
p on
ĠSe a
L ocation
M r
ĠSh op
Ġsubject s
ĠProduct s
ambi Ã©n
Ġen ables
åĽ ł
h l
A ug
Ġjo ining
ĠS ep
Ġen emy
Ġcor onavirus
Ġmi xture
m essage
Ġseg ment
ĠStud ents
Ġp orn
ig t
Ġlarg ely
Ġtr Ã¨s
) (
Ġg ym
Ġab andon
Ġrespons es
ĠD aily
He y
Ġw arning
Â» ,
res ult
U D
S L
Ġprogram ming
re a
S O
Ġgu itar
st ers
T wo
ĠJose ph
ĠBe aut
N on
B R
Ġtrack s
w art
ĠM D
ĠHen ry
Ġfeat uring
ĠGeorg ia
Ġres c
Ġrapid ly
Ġarchitect ure
ra pe
Ġbenef icial
Re view
H P
M ake
ab is
Ġi P
ĠAdminist ration
f ont
Ġh orm
E lement
al y
ĠAP I
r ant
onym ous
Ġp ent
Ġdri ven
è º
Ġaw ait
Ġp in
Ġconcept s
Ġf rag
il st
ĠTr ue
Ġb ars
ll a
Ġg iant
Ġbelie f
s ing
Ġsp ark
Ġrecogn ition
c s
ĠR ay
ĠM om
Ġb att
re ated
ĠS her
å¿ ĥ
ĠB a
Ġintegr ation
ĠRe qu
Ġgrad uate
ĠC R
ĠUk raine
ĠBe ing
Ġn ost
ĠW ould
Ġassoci ation
at in
Ġrestrict ions
-- -
ĠP riv
ul um
Ġmus cles
el ry
R ed
T ra
ĠCo ast
str ong
ÅĽ Äĩ
ĠE X
j son
ĠV i
in ator
ĠD iff
Ġcontinu ing
ĠSen ate
Ġfra ud
et o
ĠC urrent
pro fit
Ġn i
Ġstud ied
Ġlapt op
Ġequival ent
Ġvari able
ĠH old
Ñ ģ
Ġatt ach
ĠColor ado
Ġben ch
ĠA z
Ġdeb ut
Ġdra wn
ĠB ase
ĠIm p
Ġf ur
Ġcert ified
çİ °
ok ed
Ġcontain er
ĠF oot
ĠPr int
mon th
Ġnu est
C K
Ġy eah
av ed
Ġmy st
im g
Ġth inks
Ġmark ed
Ġinv ited
Ġch ronic
ĠE ffect
ain er
ĠN ut
it u
Ġs Ã©
Ġexp ansion
D ep
Ġmor al
Ġm olec
ĠC ab
ot ion
Ġsp ray
Ġdis pl
ĠIra q
14 0
ain less
**************** ****************
Ġh its
St ream
18 9
are t
ess o
Ġse in
ra f
æ Ļ
ĠH un
all a
Ġair port
Ġs ul
Ġintrodu ction
ĠAdd itionally
å Ŀ
Ġres idential
Ġpos it
ĠC ru
ĠA ction
ed ge
Ġpl ain
Ġmer ch
Ġsh ots
Ġlist s
Ġs Äĥ
ĠCon c
om ic
ek t
ĠKing dom
Ġdi abetes
Ġmanag ers
st d
Ġcheck ed
Ġt ap
Ġin cl
Ġco al
Ġrent al
ivers ary
} \\
Ġconcer ning
li ers
Ġmin ing
Ġbrill iant
ph ones
Ġtrans actions
Ġrel ation
m arket
Ġc ul
ab ol
Ġcons ent
end en
Ġb oss
ĠF ord
Ġsc ope
Ġab er
Ġatt itude
oc ated
Ġend ing
int on
p u
A v
P N
ĠS ym
9 6
åĬ Ľ
P at
Ġfind s
ĠD rive
ĠH aving
iet ies
Ġtrack ing
D ec
ĠOb ject
Ġla id
ĠW i
æľ ¬
ĠAs h
ig s
ĠRepublic an
ĠB ang
h ol
Ġclos ing
d i
ĠD I
ĠBit coin
Ġint ention
ĠJer sey
Ġun us
Ġb ull
Ġen viron
yth on
br idge
l ay
ĠG ro
g el
Ġstret ch
Ġre ly
Ġrequire ment
Ġro z
Ġstom ach
ĠN atural
Res ult
Ġcommun ications
ĠR ights
C urrent
ĠO pt
Ġcr usher
al and
ic os
Ġlet ting
s ummary
r Ã©
ĠB E
Ġans wered
ĠPac ific
µ es
ĠCons ult
Ġw ake
12 8
ĠE th
Ġal ter
D B
p ow
iam o
ĠSt ory
it led
ĠM ade
Ġse eds
Ġlov ing
Ġg ate
ĠDes cription
ĠCath olic
ĠIn f
as hed
ĠS elf
Ġsu a
Ġr um
Ġdecre ase
P age
n ia
ou ble
Ġperm ission
Ġrepl ied
ort ion
St r
Ġn odd
Ġsm oke
å° Ĩ
re ation
et he
Ġ ought
Ġp add
Ġex port
Ã¡ l
u ce
i our
åĬ ¨
Ġaddition ally
ĠSc ot
ied er
Rel ated
Ġj ur
p ower
H ello
Ġcl im
ĠTh ough
ex port
Ġp itch
ent a
ick et
n um
Ġund ert
Ġav ailability
Ġse ctions
ĠE asy
Ġad equ
ĠP ow
ĠD as
Ġvictim s
ĠC ovid
E P
S om
Ġen roll
Ġcon clusion
ĠT R
ĠE gypt
Ġse es
riz ona
a Å
Ġcl ock
Ġsuff er
o is
cript ions
Ġprodu cing
Ġdem ands
ER E
Ġmaintain ing
c d
Ġm ath
18 8
Ġapply ing
Ġremov al
Ġw ur
ĠPr ime
Ġperm it
ĠHar ry
on ia
Ġdom in
Par am
Ġcomb at
ĠProfess ional
ol is
b ell
Ġb ot
i ate
le e
Ġde ploy
ĠH as
ĠQ uality
ĠS ummer
Ġspec ified
x id
Tr ue
Ġd ys
ĠD NA
Ġbird s
Ġess entially
ĠL abor
Ġa i
ĠS em
Ġfound ed
ĠR ub
Ġpublic ation
a Ã§Ã£o
Ġke ys
Ġsome body
Ġphot ograp
Ġnew ly
12 5
ar se
Ġh am
Ġcas ual
7 6
Ġdiv ision
Ġsh irt
d at
Ġg ap
Ġl anguages
res a
7 1
Ġres id
Ġju ice
Ġd al
Ġgar age
Ġint ellect
ch arge
ĠGu ard
Ġar my
Â» .
ĠDiv ision
ial is
ĠD ream
iz abeth
Ġal arm
Ġfrequ ency
ail ing
Ġm ild
Ġput s
Ġfac ed
Ġform ation
, .
u en
ĠG arden
Ġsent ence
qu er
è¢ «
Ġdes per
ad el
Ġcy cl
ĠK l
Ġscient ists
Ġfl ower
ĠN ick
let te
Ch rist
Pe ople
Ġs oph
Ġsecond ary
Ġfil ed
gress ive
Ġh ub
ĠP RO
Ġsp ots
p ers
ut t
Ġcir cle
ĠM oney
ar ters
ĠC N
Ġpurch asing
ĠU RL
O ct
Ġstrong ly
c r
Ġtit les
fr ame
ĠG i
ĠB ern
Ġe ast
Americ an
ĠCh ange
10 2
on i
c ard
Ġf its
ĠFin ally
Ġb old
Ġhor iz
ĠE mer
ly n
Ġatt ended
Ġsm ell
. -
oc ial
l ers
Ġm ile
Ġb one
9 1
Ġor ange
\" ]
Ġs rc
Ġw ins
v an
Ġdoll ar
Ġy ards
od ge
l ib
Ġd ir
Ġstri ke
ç Ĥ
Ġf estival
Ġst ack
L ine
arr ay
Ġen orm
Ġcover ing
T ake
Ġem ails
a o
Ġtransm ission
ĠF OR
ĠR o
Ġf ib
ic ide
C or
Ġs ke
Ġcon ver
Ġpr Ã©s
å° ı
Ġst ages
Ġsc ream
ord an
ĠL ic
Ġrec ycl
Ġun w
and y
ig ation
Ġpr z
ge b
B ase
Ġrem em
ĠS A
Ġprofess or
Ġfac ulty
b led
A g
Ġex ceed
Ġenhance ment
O k
ino is
Ġcy ber
Ġless on
ĠR yan
Ġens uring
Ġphen omen
Ġcolle agues
Ġprec is
w ick
V A
S earch
Ġpres cription
Ġpropos al
ç ®
a id
Ġtravel ing
Ġr ural
M ax
Ġc ow
Ġd ental
oo f
ĠII I
ad ium
Ġstream ing
Ġdam n
Ġphot ography
asc ular
Ġf ake
Ġgreat ly
ĠEx p
Ġt ort
Ġk illing
ol s
ĠA h
aut hor
ĠStand ard
ĠOffic er
Ġlad ies
Ġfr ustr
ĠG reek
ĠRom an
ĠL ew
ç ķ
æŃ £
ĠFe atures
ĠUn fortunately
Ġmed ication
Ġwas hing
ett ings
Ġinvol ving
d el
ib l
Ġsubm itted
ĠS ection
Ġext end
Ġmo Å
Ġc bd
d ec
Ġrev olution
ĠRead ing
nov ation
Ġcent ers
Ġtr im
ÅĤ y
Ġtem ps
Ġbl ow
æĦ ı
c all
zz le
Ã µes
ST R
Ġprint ed
ec ute
Ġpe pper
Ġcal endar
Ġt rop
Ġequ ally
A nt
ott ed
Ġres ume
7 3
Ġob st
Ġinvest ments
Ġh ors
id get
Ġbr anch
Ġco at
A c
Ġimm une
arm a
p rivate
Ġins ights
.. .\"
Ġinit ially
Ġo cean
ĠC ro
f irst
Ġreturn ing
sc ale
includ ing
oc a
ĠR on
ĠD own
ĠStud ent
Ġd il
M et
ĠBra zil
Ġup grade
r itten
Ġsu ck
ĠFor ce
Ġint ense
Ġf lying
Ġopin ions
M I
Ġp ad
ĠSte el
app end
tr ue
é ¡
Ġsh ops
li ament
8 4
ure n
Ġimplement ed
in ner
ĠC opy
n on
ĠN ic
ĠSt an
ES S
Ġent ering
an while
ĠC apt
Ġwhere as
y r
7 4
Ġlif etime
ĠRes ources
D I
Ġg al
Ġstud ying
Ã´ t
Ġfor um
L es
end ant
Ġapplic able
at ile
Ġpr Ã©
Ġqu ery
Ġb ills
el n
ib les
b es
Ġsc rew
Ġhead ed
ĠM other
Ġbo ot
åį ģ
Ġc um
Ġb aking
m ony
P O
ĠH appy
Ġequ ipped
Ġl ung
ple x
ict ed
Ġc er
Ġun ter
Ġp ays
Ġu it
H ome
ĠSt one
Ġpro port
Ġf illing
Ġl oyal
Ġperson nel
ke it
ie ve
Ġmass age
d ays
ĠM ah
Ġre aching
s ervice
epend ent
ĠF red
Ġpack ages
ä¸ »
Ġto ler
z Äħ
Ġrec ip
ĠCont ent
Ġm att
b aj
: .
ĠIm m
ĠCount ry
Ġmar ks
ĠC L
ĠAd am
Ġfact ory
ĠFil m
Ġparticip ation
a fter
Ġsequ ence
at iv
Ġchild hood
ig o
Ġacqu is
ĠS C
OR T
c as
Ġemot ion
AC K
Pro v
ĠTe ch
RE S
AR T
alle l
Ġgr ateful
æĺ İ
Ġra pp
ĠCol lection
en ame
ÄĻ d
Ġmir ror
ĠMore over
m t
Ġun ion
Ġreve al
e ffect
D ay
Ġdis ag
Ġre cept
se x
ud i
ĠCh apter
ick ing
Ġbare ly
Ġprot est
Ġph ones
Ġun iverse
ĠR os
iment o
Ġv ess
Ġimp ression
b ec
ĠCap ital
Ġh ay
m ann
ÈĽ i
Ġautom atic
oc he
ol ly
Ġpow ers
Ġstay ed
Ġed it
8 2
ert y
Ġutil ize
Ġm ic
ens us
ĠSe ason
Ġrepresent ed
Ġveget ables
o en
Ġfore cast
ĠT aylor
Ġc aut
ou ston
atch ing
è ¥
Ġg ained
Ġspecial ist
und o
ĠAnal ysis
ĠI ss
? !
Ġoff ices
Ġhistor ic
ĠL ady
Ġpregn ancy
[ /
w en
ier a
Ġapp et
in als
lim ited
Ġj am
Ġh ack
Ġfall s
Ġvari ables
b ury
Ġsatisf action
ĠSing apore
W he
ĠC ome
é ©
i pt
Ġstrugg ling
9 2
ĠA ge
$ .
Ġbeh alf
Ġhop es
ot te
Ġr iding
18 6
ins on
Ġcor n
ĠSecret ary
Ġh anging
ĠIm pro
qu is
ia h
Ġburn ing
åĪ Ĩ
ĠD at
ĠSp ain
Ġpr icing
a ul
M ethod
Ġintrodu ce
Ġpriv ile
Ġh osp
Ġcompens ation
Ġdivers ity
ĠP S
am o
Ġcur rency
Ġsurv ive
Ġm old
are a
ut ies
s is
Ġr it
ĠV en
Ġg ru
Ġs ab
Ġp p
ĠCh all
ĠL y
ĠH arr
Ġun iform
re p
h ar
Ġgr ace
Ġt ong
Ġimprove ments
Ġstat istics
inte rest
ust ration
Ġelectric ity
Ġto oth
æĸ ¯
id as
Ġadopt ed
ater n
ĠUp date
Ġvi agra
AM E
ĠStud y
Ġen forcement
Ġl y
st ore
ĠApp lication
def ault
itt y
Ġthe rm
U G
on ut
h ot
ate ur
y o
ne h
Ġbuy ers
Ġnodd ed
ĠS port
ĠB ody
ĠB urn
ĠPol it
r t
Ġm ont
Ġarg uments
ĠEm ail
Ġt ous
Ġinstitut ion
Ġm oon
Ġexplan ation
. :
Ġscen es
O pen
Ġman ip
ask a
Ġpregn ant
ĠS av
ĠFr ont
ĠM ess
ĠC ra
Res ponse
Ġmarg in
ĠB ath
i ology
èº «
Ġpr ayer
b lic
Ġsu ite
Ġst ir
ĠS aint
Ġpen is
Ġpro c
Ġoper ator
Ġy ard
Ġp ier
Ġu l
z u
Ġun expected
G R
ĠV iet
Ġcon j
ĠComm on
Ġcon sole
ĠArt icle
Ġcur ious
ĠEx am
Ġtem porary
oc ur
ĠProt ection
Ġencourag ed
Ġbl end
E s
Ġtext ure
ov ing
Ġworks hop
m ic
Ġd if
Ġb omb
( [
Ġa er
Ġdr inks
Ġde lete
k g
e vent
Ġvers us
Ġfew er
ĠB ush
il arly
ĠSup reme
æ ı
Ġinst ruction
em os
at hered
vious ly
? )
ĠVe gas
Ġbroad cast
ĠUS D
ç ģ
ĠPa per
ick ed
Ġconcent ration
Ġs que
ãĢ ĭ
ĠN orthern
g ame
ĠC ore
ĠS ource
act s
P ing
Ġfr anch
Ġpack aging
Ġme j
Ġfunction ality
ĠB and
sem ble
éĹ ´
L ink
ĠA venue
Ã »
E st
h ome
Ġann oy
ãĢ Ĭ
ĠP od
om in
ĠBook s
er ry
ĠW at
** *
Ġst ability
Ġhead ing
M s
Ġperiod s
N umber
r ar
Ġmind s
is p
Ġinfl amm
ĠSh ort
ĠAr m
Ġdeath s
Ġign ore
ic her
ot ype
Ġiniti ative
Ġal ert
Ġm uy
è¥ ¿
ax y
Ġgold en
Ġheav en
ĠS ir
ĠMount ain
Ġsc ar
8 1
Ġfocus ing
Ġprint ing
Ġexperi encing
Ġg ene
pro t
Ġprepar ing
ĠAs k
cc iÃ
ĠYO U
ĠL iving
10 8
p ot
Ġinj ured
Ġact or
Ġc otton
Ġo ok
b at
ĠS ky
Ġclass room
S cript
ag ers
ĠAg ency
ft en
ĠK ent
ĠPak istan
Ġdiagn osis
Ġentr ance
Ġop ens
ĠA lp
ĠSar ah
Ġf are
a Ã±
Ġind icated
Ġgener ic
am ics
ĠG row
Ġflex ibility
( *
Ġaccess ories
ĠÃ©t ait
Ġse ats
Ġgr anted
N O
Cont ent
c ery
Ġbr ush
cont ent
Ġscen ario
Ġl oose
il ton
b in
Ġmeas ured
Ãº n
Ġeng aging
Ġam pl
Ġdis hes
Ġcontinu ous
h y
Ġdur able
Ġsure ly
Ġpe ak
Ġt ears
ĠPh oto
ĠMem bers
ens or
Ġsc ores
Ġacknow led
Ġlay ers
ĠC it
Ġlist ing
th rough
ĠTh ings
è¿ Ľ
18 7
il ty
Ġcan cel
ag raph
Ġlay out
== =
Ġf ert
Ġb in
ĠCom ment
al ty
ib t
Ġtrans formation
P ack
Ġv ice
Ġ ÅĽ
Ġref und
ik ely
for ward
Ġemploy er
Ġg eb
Ġsupp ose
ile t
h h
ĠP ur
ĠF ox
IN T
Ġdisplay ed
ĠM ind
Ġy oga
c hers
Ġquant ity
b est
V I
Ġmist akes
Ġt ape
ĠSen ior
ul pt
Ġdifficult y
Å £
Ġav ait
IC E
Ã¤ h
ud a
ad ata
rag on
l ocal
d ict
9 3
e le
Ġsleep ing
8 3
or ic
id ades
ĠĠĠĠĠĠĠĠĠĠĠĠĠĠĠĠ ĠĠĠĠĠĠĠĠĠĠĠĠĠĠĠĠ
as i
Ġdisc rim
t ag
Ġass igned
z n
Ġor al
S ystem
Ġsatisf ied
Ġsy nd
IV E
ĠRad io
xy gen
Add ress
Ġopp osed
Ġtut orial
Ġprinc iple
sc reen
ĠK ar
Ġsupp lements
Ġeval uate
à ¤
Ġa wards
ĠExper ience
ç Ļ
vis or
ĠB ol
U nder
Ġb oolean
ĠO s
ĠDes pite
ĠSt aff
M B
9 4
M T
Ġinc ent
tt p
ĠMod ern
Ġh ip
ever al
Ġs ought
Pl ay
Ġconvers ations
B en
Ġexpl o
Ġnight s
h ire
Ġlo op
per t
re z
h igh
ÃŃ as
Ġenc ounter
ĠJ r
Do es
ĠA rizona
Ġse asons
Ġan gle
Ġsaf ely
ret t
Ġh al
ĠEvery one
it ative
ĠPhil ipp
Ġt we
an Ã§
\" ),
us al
Ġsil ence
Ġfocus es
Ġres ort
ĠC ivil
M em
Ġang ry
Ġha z
ĠStud io
Ġb ub
ĠT en
it ement
ĠSer ver
Ġextra ord
D isc
Ġtarget s
ĠP resent
Ġcut s
Ġt ie
Ġloss es
Ġrec all
åĪ ©
Ġrare ly
an ne
ĠQu ick
Ġaim s
Ġhapp iness
ĠBl ock
Ġres olve
Ġrequest ed
Ġro d
r iger
Ġn ations
Ġcontribut ion
ä¸ ī
pl an
M en
ĠPart ners
em ail
all as
st atus
Ġsur ge
ĠSw ed
ak i
ĠB iden
ĠMan ufact
ol en
Ġv om
ĠBe h
ĠC S
Ġconc ert
ĠKore a
Ġas ks
ro gen
Ġleg end
Ġcomb ine
Ġcont ained
Ġfun c
Ġvis its
Ġfarm ers
Ġpre st
Ġequ ity
o op
Ġinvent ory
åŃ ¦
¡ æľī
å® ļ
w ear
Ġgraph ics
Ġgenu ine
ĠInst all
Ġsuff ered
Ġacc um
( -
Ġcup s
Ġh iring
ore t
h our
Ġhard ly
Ġacqu ired
ĠK ind
art en
Ġs v
Ġd uration
os ph
Ġra ising
ams ung
Ġrid ic
W S
Ġcert ificate
Ġs ne
Ġair craft
n is
Ġspeak er
Ġme hr
aj e
Ġcomput ers
Ġtrust ed
Ġsubs cription
Ch ild
ro d
ĠCons ider
ok er
Ġinvest ing
Ġrepe at
Ġnerv ous
Bl ack
ĠP oly
Ġheart s
On ly
ĠZe aland
ĉĉ ĉĉ
Ġsc ored
Ġgovern ments
pt r
ĠP ers
Ġresp ir
w y
Ġs our
Ġg em
B et
Ġsold iers
éķ ¿
av al
Ġrob ust
ĠM arg
Ġpush ing
ud o
ĠV in
Ġwrit es
opp er
ĠIr ish
Ġsm iled
Ġheav ily
con f
Ġun se
Ġaccur acy
ç Ĳ
P RO
Ġt ons
u ction
Ġlog ic
ĠO wn
A ction
Ġdes erve
Ġcontract s
ĠInte gr
Ġaward ed
åķ Ĭ
Ġto ken
O p
Ġsh ook
enn es
Ã¤ ng
Ġp ip
ast ed
Ġaddress es
P ay
m em
w all
Ġsw ing
Ġen abled
Ġnut ri
ĠFurther more
ĠA wards
per ties
the y
P ublic
ĠGold en
r ine
Ġsc reens
ĠB at
ĠL LC
Ġp ap
ĠM iami
Ġd ot
il ation
ort e
R P
ĠB ru
Ġdist ingu
Ġattempt s
12 3
D av
d et
Ġhol idays
å° Ķ
B ar
Ġme ets
ist ing
æĸ ĩ
Ġsubstant ial
ĠT ag
Ġl en
ap se
Ġarg ue
00 1
Ġspeak ers
ĠRem ember
Ġtemper atures
Ġadm itted
ol ving
Ġro y
s i
d em
ĠE ric
Ġdocument ation
Y eah
or ous
ĠTe le
Ġab ilities
ÃŃ s
iat ric
Ġre ven
ĠK ids
ĠG P
Ġphilosoph y
f ire
ĠJ ob
h ou
ac les
Ġtod os
n ormal
Ġ Äį
m ain
umin um
Ġshould ers
æľ Ģ
Ġnot re
ylv ania
ĠS olutions
F eb
Ġex clus
Ġdam aged
ĠC ut
Ġcom un
pl ed
Ġpack ed
Ġcr ash
Ġbene ath
Ġdemonstr ate
Ġen f
c at
Ġodd s
ĠD ur
L S
l u
Ġmed ic
Ġen v
ĠM s
Ġweap on
Ġpr ide
Ġdirect ions
ĠEvery thing
es is
Ġg es
se lect
Ġunus ual
Ġconf ront
Ġmy th
ĠChe m
ore n
rou s
Ġabs ence
Ġover come
Ġf ool
ass ion
Ġest imate
Ġtra baj
ĠA k
Up date
Ġex it
Ġvulner able
Ġpro hib
Ġs ummary
S w
Ġquest o
Ġser vers
ĠBro ad
Â ©
Ġl ake
å· ±
ĠC ub
è ī
ÃŃ n
Pro f
he it
m ission
art e
ĠAv ailable
ĠBrit ain
ĠSqu are
ĠTrans port
am er
ah ren
Ġc ant
ut ion
t ail
p ire
ä¸ ¤
b ound
Ġsign ature
Ġroad s
g hed
Ġwood en
Ġbl ame
ĠD VD
an za
ĠM ais
S ON
Ġche cks
ĠMin istry
Ġrepresent ative
Ġfrequ ent
Ġflu id
æī ĭ
Ġrom antic
Ġinfl ation
ĠN FL
Ġblog s
Ġan ger
ost en
ĠM ember
r ants
d on
\\ \\
Ġg ew
Ġhe m
ac ious
ĠD iet
Ġdivid ed
w ich
çŁ ¥
id ade
book s
Ġt ambiÃ©n
Ġdescrib es
ĠP ri
é »
ĠU m
F S
In put
or ie
ĠS ave
Ġdr ama
Ġenthus i
18 5
åı Ī
çļĦ å
d r
Ġmaintain ed
Ġarrest ed
Ġdistribut ed
Ġapp lies
Ġcontro vers
er ior
I B
om o
Ġproduct ivity
back s
as hes
Ġpromot ing
Ġbreak s
Ġj a
Ġsem i
or se
Ġplug in
omm en
l aw
are r
Ġposs ibilities
Ġexam ine
ult ane
ĠE astern
Ġtem por
ĠFore st
r us
ĠLat in
ĠCor poration
reg on
ĠO P
Ġdecl ine
> (
ad en
Ġacqu ire
Ġinst antly
ere r
Ġcrypt o
ĠJ osh
Ġs oll
ac o
Ġtarget ed
Ġc ogn
anc hes
Ġpued e
ĠO x
Ġmin ister
Ġnob ody
ure au
G en
S ign
Ġm ie
ĠIm age
ual s
re ement
Ġhigh lights
g iving
Ġindic ates
Ġexception al
Ġn ue
å¤ ´
Ġass ault
J oin
ĠVal ue
Ġcap s
here nt
Ġpre ced
Ġro ots
achel or
Ġprop ri
ef its
Ġj et
orn o
Ġc ats
Ġt ied
Ġdirect ory
ĠS ure
ph p
D C
Ġent itled
Ġdevelop er
( âĢľ
u um
Ġf iction
Ġdiscuss ions
Ġsubst ance
ĠId ent
AB LE
Ġroll ing
im s
ĠL i
Ġbank ing
ĠB ud
ru p
M at
Ġst ations
ast y
ĠPr in
Ã¨ me
ang el
ç ©
Ġm ouse
ĠIll inois
Ġb ass
é £
as er
Ġrec ruit
ig ma
ĠMot or
Ġi OS
I E
g ree
ĠF L
ĠC ou
å® ŀ
ĠAir port
ĠK ong
Ġst ocks
Ã ī
ĠR og
Ġent ity
Ġste pped
Ġpro st
æ° ĳ
Ġpr on
U ST
Ġelect ron
an ing
é «
Ġconsult ation
P al
ĠEl izabeth
Ġt ube
h ops
S H
Ġg ig
ĠComput er
wh o
ĠF ab
ĠN E
Ġconvers ion
Ġstru ck
Ph oto
Ġ ik
Ġmove ments
ĠM oon
Ġthem es
ost ic
ĠInt erest
S k
at ar
11 1
u ating
Ġaccount ing
Ġcomp os
t itle
ĠA st
New s
Ġemploy ed
ĠA ve
P ort
P ol
ĠMon th
Ġexpl os
ps on
Ġtri ps
isc al
AS S
h yd
Ġgr id
Ġcon ventional
W elcome
Ġd ict
p ool
pro cess
j ud
Ġd op
cle ar
ĠAf ghan
ric ulum
C B
act or
R ight
Ġcomple ment
l n
Ġp om
Ġpent ru
Ġfollow ers
ĠElect ric
* )
Ġl on
Ġhe ating
Ġwis dom
Ġdi pl
ĠW ars
Ġcere mony
Ġt rib
im mer
Ġsp o
Ġord inary
ĊĊ Ċ
ĠHol lywood
f ound
Pro ject
Ġinv ite
Ġbu g
Ġenviron ments
cos ystem
ile y
fl oat
pl ant
d ing
Ġcontribut ions
Ch ar
Ġthro at
Ġl ens
èĩª å·±
Ġlow est
ĠA bs
Ġdism iss
ĠAm ong
Ġs orts
ĠB ell
O O
Ġcon ce
Ġelect ed
s ylvania
el se
Ġfold er
Ġcirc uit
ĠS D
ĠEn joy
Ġwork place
Ġexerc ises
Ġpromot ion
uss ion
Ġlic ensed
ĠG ive
Ġp atch
ern ame
re quest
ĠB aby
w ill
ĠC irc
ÃŃ m
Ġswim ming
Ġfem in
Ġsubsequ ent
Ġse ar
Ġcont ents
åĲ ĳ
ĠReg ist
Ġco aching
ĠM i
Ġwat ers
D el
Build er
Ġp upp
pl ic
Ġbehav iour
ĠPriv acy
ĠPl ant
ĠC over
Ġst a
Ġed iting
Ġcert ification
ott om
ĠPer formance
ĠH R
Ġconf used
ĠT oy
Ġrepresent ation
ent i
ĠT ree
ĠBer lin
ĠS in
clud es
p g
Ġregul atory
iz ations
Ġbreat hing
c am
ĠD iam
Ġthrow s
ĠSt ation
Bl ock
Ġamong st
Ġinterview s
osit ory
Ġm arch
Ġr acing
... ]
Ġtrig ger
r ange
ĠSci ences
ĠF a
ĠK enn
Ġassist ant
ĠH ouston
Ġneut ral
Ġform a
pr ises
Ġdemonstr ated
k ind
Ġm ant
Qu est
Ġgrand e
Ġr Ã©s
ĠF ast
ish ment
Ġlas er
end if
ĠTh ink
Ġf iber
ap h
Ġprec ious
Inst ance
Ġconsist ently
ĠTor onto
if i
ĠW inter
ry ing
Ġres idence
ethe less
ol n
Ġaddress ed
ĠFin ance
ĠD ub
ĠPr ince
he ast
Ġsurv ival
Ġp i
pe red
Ġbel t
Ġhost ed
Ġsmart phone
Ġsle e
Ġmeaning ful
But ton
ĠF REE
Ġdig est
Ġpick ing
Ġp are
bur gh
p op
æĬ Ĭ
ou red
ĠC ancer
Ġinter actions
ĠH ay
h u
ith ub
J une
Ġc ub
Ġse am
Ġbase ball
ath y
ĠEd ition
Ġunder lying
d oc
Ġprov ed
Ġt ension
Ġnarr ative
un o
ĠLim ited
old s
s im
ĠDe ad
Ġdiv orce
le b
Ġe cho
Ġut ility
und en
ĠP ed
c u
Ġreg ulation
e y
Ġhab its
Ġn am
ĠH P
cl ient
åĽ ŀ
Ġpri ze
Ġir rit
Ġcreat ivity
Ġt a
//////// ////////
Ġs z
Ġcompat ible
Ġaccord ance
Ġapp li
Ġre verse
Ġdes de
Ġtri als
Ġemer ging
Ġart ificial
ens ing
åħ ¬
T ag
ard o
rape ut
pl ing
l ia
Ġc ig
Ġu k
ĠEst ate
Ġvolunte ers
as ion
AS E
Ġvot ing
Ġl ying
Ġvirt ually
ĠCol lect
Ġiniti atives
Ġsal ary
Ġpan els
l ined
Ġres ident
A ccess
ĠN ature
Ġexpl oring
we b
ĠM iller
Ġdis order
Qu ery
May be
Ġfif th
Ġpil ot
M arch
Ġfinanc ing
= {
æĥ ħ
Ġbasket ball
Ġdeliver ing
Ġcoun cil
Ġinter vention
ĠAnt h
Ġs lic
10 5
éĥ ¨
ru nd
Ġdecl ared
Ġnom bre
Ġobject ives
Ġmatch ing
Ġinfect ions
ag ne
re b
ĠT it
Ġowners hip
Ġpr ze
Ġjud gment
Ġe ars
Ġcam eras
c alled
ar o
el ijk
Ġsole ly
F inally
Ġwire less
oc key
Ġexhib ition
u ana
Ġdes ktop
ĠBet ter
A pril
17 0
Ġab und
ĠL oss
ĠKe vin
Ġcl ip
Ġb io
Ġemploy ers
He alth
Ġcampaign s
L Y
nes ota
âĢ Ĳ
Ġo Ã
ĠDie go
IT Y
Ġw aves
B el
è ¶
Ġbelie fs
Ġhot els
Ġactiv ely
ĠN othing
Ġgar lic
ro it
ĠT alk
un ge
ock ets
Ġneigh b
ĠS ound
ors hip
Ġw estern
Ġbe z
Ġpurs ue
Ġelse where
Ġenc ore
Ġopp osition
ĠJ enn
Ġbu nd
S ch
ĠM uch
X X
Ġtest im
Ġgra v
ĠH ong
Ġsett led
ĠIndust ry
Ġem issions
Ġg ross
Ġelim inate
Ġnurs ing
Ġs outhern
ĠPro du
g ood
Ġde ar
Ġarriv al
a ver
Ġd irt
ul ui
ĠE D
Ġinter active
Ġorgan isation
Ġexpand ed
Ġw ishes
Ġfound er
é« ĺ
it ches
F in
Ġbacter ia
Ġbo ards
Ġinc om
Ġaim ed
Pr ice
Ġp es
Ġcelebr ation
ph ia
ĠG er
Ġimportant ly
Ġm Ã¶
ass en
ĠB ag
Ġsm oking
d ig
ĠDemocr atic
Ġsign ing
unicip al
ne xt
æĶ ¿
erv ing
add y
Ġle mon
pl it
ĠB an
Ġch ap
Ġpass age
è§ ģ
ĠB rian
Ġtourn ament
Ġearn ings
em ies
fl ix
ur ities
Ġc ord
op her
H z
Ġvot ers
Aut hor
arr ass
ĠApp ly
qu ery
Ġcorrespond ing
Ġgu ilty
Ġphys ically
Ġreg ards
Ġfulf ill
Ġclub s
Ġad min
Ġmount ains
Ġcap ac
ĠMar c
part y
Ġresult ed
Ġw ise
\\ \"
n ull
ond a
M D
con text
u et
ĠT otal
ĠApp ro
Ġinn oc
Ġback up
Ġtong ue
ĠGall ery
Ġmechan ical
U r
u its
ing e
ĠP ub
V ery
åĲ į
c up
Ġwork er
ĠBro ther
p ad
Ġhosp itals
ĠH ost
In tern
Ġcomplet ion
Ġscreen ing
Ġw ider
Ġgl obe
aw are
Ġtable t
Ġcrypt ocur
Ġsupp liers
us et
Ġo z
ĠV ice
Ġsh out
z ia
Ġhors es
am ine
ĠKit chen
ĠN ob
og s
ĠChrist ians
ĠLew is
Ġphr ase
Ġanal yst
ĠDon ald
Ġnewsp aper
ä¸ ĸ
Ġatt ending
ĠP rivate
s ized
Ġroll ed
ribut ion
ĠArch itect
Ġwe igh
Ġb other
Ġvert ical
Ġd ual
Ġhol es
Ġprocess ed
Ġparticip ating
ER T
ĠC le
iss ance
Ġb id
P D
Ġg athered
G od
ĠCh oose
ĠO ak
Ġbrother s
Ġm aps
Ġaccom pan
Ġde leg
ĠPro perty
ĠEx press
Ġtem pt
ĠP ath
t ains
ç Ī
ĠPh one
iction ary
18 4
Â §
Ġup set
ĠC T
ĠF uture
Ġsou p
Ġany body
Ġtransl ation
S ty
Ġfru its
Ġeleg ant
re i
Ġt orn
Ġbab ies
od ed
$ $
Ke ep
ĠAnn ual
Ġa est
pr ing
itut ional
Ġt i
Gener al
Ġsk illed
ous es
ĠI V
Ġcont ra
ĠS H
am y
Ġt ar
ĠW olf
çĽ ¸
Ġcal ories
Ġoffic ially
s z
Ġv ir
Ġ rib
( _
Ġconven ience
Ġover l
Ġpull ing
Ġd rain
a wn
ore r
az ioni
Ġp ant
m akers
Ġsens or
Ġv os
ĠDav is
ĠD ise
Ġel der
Ġhope fully
Ġdifferent ly
ĠRest aur
owe en
ot ive
Ġch ips
adel phia
f i
Ġdestroy ed
Ġmake up
ĠL iter
Ġmay or
W E
Ġref ers
ĠL ess
P res
Ġimpact s
Ġv ib
ĠDou ble
Ġsim ultane
Ġle af
ĠJ ay
d im
Ġpar ad
ĠJe an
vent ions
ĠJ ordan
ag ine
Ġconv in
Ġdownt own
Ġin du
ĠB B
ĠP or
Ġexam ination
Ġm Ã
g i
pl us
Ġdis aster
In s
++ )
M ark
we ek
ĠO pp
ĠRel ations
ĠP ast
Ġpo ver
ĠS ide
Ġref uge
Ġcour ts
Ġh an
Ġnut rition
N C
ol ves
Ġhonest ly
Ġh oney
Ġo re
ism s
Ġo xygen
ĠM erc
ĠE T
H appy
r in
Ġd ump
ĠWil son
m ates
ĠEm ploy
im iento
Ġaltern atives
iss a
Ġannounce ment
ĠTr ade
Ġex ch
Ġperform ances
å ĥ
Ġexpl icit
Ġli ability
nt il
Ġin ev
Ġremov ing
Ġenh anced
Ġcharg ing
c ellent
ĠDemocr ats
Ġpro secut
Ġaccom p
Ġref used
Ġpassion ate
Ġd ia
Ð° Ð
Ġpur su
ĠP arent
sec urity
Ġinstr uments
Ġcomp osition
in ates
m ind
S i
Ġens ures
å® ĥ
Ġwh ilst
Ġvot es
P erson
ĠS ong
Ġdef ect
ĠBro ok
Ġd rives
Ġprov ision
Ġsil ent
k m
Ġvit amin
up date
Ġv ig
Ġsing ing
Ġsh r
ow ie
N one
Wh ich
ĠC ould
Ġcou ples
æ į
I LL
al g
ĠDe ath
em an
D an
b ling
Ġun like
ĠSe pt
Ġqu otes
Ġa ver
Ġoper ational
em ia
ab olic
Fig ure
Ġch i
Ġag enda
r Ã¤
Ġn ella
ĠM ust
Ġwor n
Ġeng ines
ort ed
W ow
ON E
Ġpass es
Ġmed i
Ġple asant
t age
Ġper f
Whe ther
Ġv ine
s ome
U RE
F ull
Ġexp ense
å± ±
Ġjew elry
G S
Ġlock ed
d am
te x
Ġauthent ic
ĠIs lam
éĩ į
Ġven ue
Ġst amp
ess a
st op
ist ical
r ations
ĠPenn sylvania
ĠPr im
Ġdepend ent
olog ists
Ġav ant
b st
Ġche aper
L ooking
ĠInd ex
Ġanal ys
Ġto ys
ĠC orn
On line
ĠP our
Ġprotect ing
Ġdesign ers
Ġgen re
ĠBr ad
Ġcor por
Ġlau ghed
Ġfl ights
Ġwork out
F OR
Equ al
ĠAl tern
ĠE lement
ĠJ am
Ab stract
ĠPer fect
Ġl iver
se ason
ch Ã©
Ġed ges
om er
ĠPlan ning
L ong
ç ¤
Ġload ed
ĠBre ak
ac ular
Ġbon uses
Ġgener ations
ins i
Ġact ors
Ġdisc overy
u ke
Ġguarante ed
Ġst ops
$ ,
ro ck
gl ich
pro perty
ĠEd itor
ĠVill age
w alk
W rite
ad ores
ĠG reg
Ġgl ob
Ġand roid
ill o
Ġopt imal
us c
ĠG as
L ook
ĠI ron
Ġtro ops
Com ment
Ġf t
Ġw enn
Ġdet ection
Ġwor ship
e q
t arget
äº Į
ĠR O
Ģ ä
Ġst opping
ĠM agn
Ġto ss
ĠMic hel
Ġv iel
Ãª tre
t here
Ġimp ressed
Ġdist ract
Ġphotograph s
Ġgen etic
Ġclick ing
Ġvolunte er
ĠS ab
ĠLin ux
ĠC art
B ig
, âĢĻ
b ug
Ġr ust
ace ut
Se ptember
Ġrespond ed
ä» £
Ġh acer
nd ry
w al
old er
ĠH yd
Ġur l
in ely
ĠUn ter
om atic
Ġres erved
ĠVis it
Ġview ing
Ġg er
Ġdep os
are st
De v
osp el
Ġepis odes
Ġprodu ces
ĠC ash
ater al
Ġelect ions
2 20
Ġsh ame
ĠK h
Ġes sere
Ġcompet e
ĠH ub
ĠT ips
Ġann iversary
Ġh ug
he alth
u id
ĠC reek
ĠMag azine
ov o
Ġtalent ed
Ġa pr
ĠO regon
Ġprevent ion
Ġver b
ĠRem ove
er als
it Ã©s
Ġthreat s
Ġpaint ed
it zer
Ġmod ified
Ġve z
è Ħ
Ġreview ed
F P
Ġpurch ases
l ation
Ġr ug
ĠBl ood
ĠAnt on
pie ce
ĠTerm s
Ġbur den
ĠP O
Ġe cosystem
el en
H ot
h ard
Ġab stract
ĠL ie
te ch
Ġprom ised
ĠAust in
Ġinst ances
Ġground s
if s
Ġbal anced
ons in
Ġunivers ities
Ã© rie
H L
Ġg reet
Ġas sembly
ish op
Ġre ct
Ġrad ical
eng ers
ab ling
Ex p
Ġm s
ĠA LL
ĠPal est
id al
f alse
Ġfro zen
ĠEv ents
B E
ar ation
ac ional
24 0
Ġaffili ate
Ġrest ore
Ġsc ulpt
ĠF ed
ÃŁ e
Ġcult iv
f en
ic are
ĠJ ason
åħ ¥
cy cle
in ery
out put
Ġfall en
Ġrough ly
am ma
Ġinter f
ix el
Ġwarrant y
ph y
id ity
Ġtele phone
Ġgather ing
\" ).
Ã¤ l
ĠUn it
Ġne ces
Ġmatt ress
g ot
Ġfig ured
Ġball s
Ġprodu cer
- .
Ġcon se
Ġcann abis
Ġre wards
Ġbe ef
ch ron
ĠC hen
Ġch ip
Ġpover ty
Ġdis orders
ĠV ers
Ġover se
Ġim mer
c n
Ġacc used
Ġunl ikely
umb led
Ġener g
è Ĥ
g ly
ĠA uf
end ment
ĠM ath
20 3
ill es
EN D
Ġver ify
Ġwra pped
ĠN C
en ÃŃ
ĠÃ© l
ĠStep hen
m other
Ġh itting
ĠI L
Ġpsych ological
ĠO nt
Ġdrop s
Ġcollect ive
az ed
en ess
J uly
M ain
Ġc ad
ĠWork ing
Ġpopular ity
Ġcapt ured
k Ã
Ġl ang
Ġcooper ation
Ġentreprene urs
ĠC ool
Ġsoph ist
Ġep id
Ġpre nd
ĠJ ane
Ġd ying
ĠP ick
ust ain
18 3
j ac
ĠFor um
Ġhy brid
ĠM ix
Ġb ands
ĠG olf
Ġtem po
b as
R un
V ersion
Ðµ Ð
ĠN ation
B N
j u
Ġkne e
Ġg ang
air y
in et
ent h
T oken
isc onsin
H D
ag an
ij uana
O ptions
Ġcou rage
act iv
Ġbe ans
Ġb its
ric es
ĠBr idge
Ġpe er
Ġcop ies
O per
Ġg ently
Ġview ed
s pecific
ĠTur key
Ġd uties
Ġaffect s
ĠMin i
ĠS U
Ġas pir
Ġp izza
ĠColumb ia
Ġcomp act
Ġc ust
he nd
ential s
Ġref erences
AN T
ound ing
pro duct
Ġl ibr
st a
ind i
an al
ĠA qu
Ġchemical s
Ġfab ulous
Ġsh adow
ĠM ort
Ġsc al
Ġhar vest
Ġsurround ed
Ġapp le
Ġp iano
ĠG es
âĪ Ĵ
ne cess
ce eds
ĠD ies
m ut
ous ing
Ġexecut ion
Ġp ants
Ġrec ru
Ġnew est
Ġsp okes
Ġrele ases
Ġsex y
yd ney
Ġintegr ity
Aug ust
i ov
Ġv in
se arch
Ġ ip
ĠE V
cl ick
Ġdis rupt
ER R
c ies
ĠO ption
od er
ĠD im
Ġw rap
ĠL anguage
M us
omet ry
Ġp ets
Ġprof its
Ġconst ra
ĠCont ract
Ġn p
Ġterrit ory
\" }
Ġev ident
ĊĠĠĠĠĠĠĠĠĠĠĠĠĠĠĠĠĠĠĠĠĠĠĠĠ ĠĠĠ
E v
ĠA gr
Ġd ash
Ġf ired
Ġappreci ated
ig ue
f ish
Ġsh apes
he art
Th ose
Ġland ing
ipp er
Ġsn ap
Ġst em
Ġqu ot
Ġthorough ly
Ġover view
Ġmoment o
Co V
Ġprom inent
ĠQ ual
M ult
Ġbur st
ĠQuest ions
Ġt v
Ġc ous
ĠSe attle
Ġsing er
ĠAss istant
Ġfin est
crib ed
ĠMin nesota
Ġcol ours
iz a
Ġab road
Ġconnect ing
ĠM ajor
ç¥ ŀ
ĠF ra
Ġc ada
Ġlog in
Ġb ou
Ġfasc inating
Ġbook ing
it ivity
ĠR ome
Ġb ite
Ġoff ense
ĠRes ults
ch arg
am iento
Ġcol leg
Ġoverwhel ming
Ġtrem end
Ġforgot ten
Ġcontribut ed
ow ers
ĠM ars
Ġutil izing
ĠWrit ing
Ġcult ures
ĠG ard
L oad
ve z
Ġoper ators
Ġpain ful
Ġd ann
ĠÃ ¶
? '
ĊĠĠĠĠĠĠĠĠĠĠĠĠ Ġ
ĠN S
j ack
Ġnavig ate
Cont in
Ġcor rel
Ġc ual
Ġexc itement
c ap
ĠPro p
Ġst raw
ĠU nd
Ã©n Ã©
Ġag ed
Ġn ap
ĠH u
Ġag gressive
Ġprecis ely
Ġappet ite
ĠPh arm
is ode
ell ite
ĠW H
let on
Ġa y
ob b
be gin
ĠP ain
ĠP ict
ĠAct iv
Comp onent
ĠGl ass
Ġhe nce
R T
Ġcred its
Ġkn ife
UL T
Ġlaw yers
Ġsurf aces
Ġcook ed
ed it
P ass
Ġprec ise
hold er
Ġprem ier
Ġt an
W atch
Ġlimit ations
]( #
Ġst rain
htt p
Ret urn
Ġbul k
Ġoff set
Ġlike wise
Ġpar agraph
k ie
iz able
ro ot
sh ow
Ġsl ide
ĠB irth
aceut ical
ĠD ick
ĠP L
Ġex terior
Hand ler
A ng
n ych
ĠB C
ĠBar b
ĠIn fo
Ġmoist ure
ĠC and
Ġwhe els
Ġn orthern
Ġse vent
ĠGr ant
Ġv iv
ĠB ased
am on
æŀ ľ
ĠCo oper
Ġe u
Ġadopt ion
Ġintellig ent
Ġadequ ate
ÅĻ ÃŃ
in ction
ĠN orm
Ġtrans parent
ich ael
Ġve ctor
Ġv intage
Q ue
ing ton
âĢĿ )
re ll
Ġmed ications
Ġtra iler
n ut
Su per
Ġrespect ive
Ġfant asy
d ers
do ors
< !
Ġdo zen
Å¡ ÃŃ
Ġrub ber
ĠDe ep
Ġsp oken
ĠM ove
ĠM ens
Or der
ah oo
ĠEx change
red ient
Ġce iling
m ont
Ġcas a
10 3
ĠSim on
Ġremark able
Ġover night
arg o
ĠCl inton
S pec
ĠaÃ± os
ĠD ave
Ġtri es
ad i
if ice
gu ard
ĠR oy
Ġappoint ed
D i
Ġco in
Ġc ort
æľ Ī
Ġathlet es
åº ¦
w hen
ĠT ai
ĠInc re
Ġbuy er
Ġacquis ition
ig a
ĠR s
Ġjo ke
Ġdro ve
Ġenjoy able
ro duct
ĠGr ad
Ġviol ent
Ġj aw
or ient
ĠH o
ĠSt yle
Ġt ang
Ġemb arrass
ĠB ry
Ġunivers al
el ve
sh ot
htt ps
min ute
ne j
ĠA pr
Us ing
enc er
Ġbes ide
ĠF at
ol ine
Ġhe al
Ġj ou
W orld
g redients
Ġcon vey
uset ts
oun ces
Ġhun ting
Ġobs erve
Ġg rip
ac cess
Ġswe at
Ġcu ando
em ed
å¤ ĸ
ou ver
ĠÃ ī
Ġbutt ons
m ate
Ġne uro
F E
ĠS cript
Ġgraph ic
in f
Ġvot ed
ach usetts
ĠIm port
Ġb inding
Ġcompl iment
Ġprof iles
oster one
Ġestim ates
p aren
ĠT ony
Ġsu p
ĠV ersion
Ġgr ay
ĠHaw ai
Ġg a
Ġspect rum
Ġcas o
ple t
Ġse ctors
Ġsp an
Ġgun s
ur ches
gg i
s a
ot to
Ġz o
ze it
grad uate
Ġadvert is
Ġcur ve
ĠVict oria
V ol
ĠG ree
Le vel
Ġenorm ous
ĠNiger ia
ĠF inal
ob j
Ġm elt
ĠH IV
ĠS ix
Ġproduct ive
Ġgall ery
F R
Ġbe aring
ĠC C
Ġmyst ery
25 6
ĠH E
ĠS pec
names pace
let t
Ġpublish ing
ĠSt ay
Ġoccas ions
ent ry
ut a
ĠCour se
Ġoff ensive
¸ ı
Sec ond
ĠS umm
ĠP ier
Ġbit coin
Ġadm ission
ug in
ul er
Ġu int
4 50
ĠD ays
Ġoil s
ĠG raph
åħ ¨
Ġen zym
est y
Ġredu ces
ĠD ue
on al
Ġall erg
Ġmat hemat
Ġremem bered
ce ive
Ġco ins
ĠDo ctor
ĠA le
sc ribe
n ik
Ġgro cery
S ave
Ġc rown
Ġstead y
Ġc ialis
Ġsp ell
us hes
b age
ĠL ooking
ĠB uff
play er
P T
Ġinv al
Ġeffect iveness
Ġexpand ing
Ġind oor
Ġfranch ise
Ġwal ks
Ġdial ogue
Ġpar allel
Ġinvestig ate
ĠH al
Ġleg acy
Ġin k
ĠC ell
ast ing
Ġintellect ual
Des pite
ig ious
ĠK elly
10 4
Ġanal ytics
ĠE ve
Ġs ous
ĠC rit
Ġh ij
ĠK r
Ġr anging
H ist
s uch
Ġm ature
] );
Ġet ern
Ġrepresent ing
Ġconvin ced
oo oo
ric a
p ush
l amic
Ġt ags
Ġin quir
Ġsal ad
Ġhor ror
ĠL yn
ve ment
ĠEconom ic
Ġrel i
Ġfil ters
ĠTr ad
ul in
Ġint im
Ġident ical
Ġg rey
Ġs ink
Ġwur de
.... ..
Sh ow
Ġc iv
Ġbo ots
s che
e g
Ġpl acing
itar ian
Ġagg reg
se a
elf are
Ã Ĺ
on ing
ĠH ig
Ġcar b
â ĺ
Ġbe re
m ethod
Ġp ig
u ates
Ġcalcul ated
Ġvent ure
ed a
od ium
ĠSu ccess
ĠJ u
Ġsett le
ĠI C
ĠT ok
ĠV it
ĠSing le
Ġth rown
Ġmin im
om i
ĠD yn
ĠAd vent
V ideo
ĠSc ient
} {
Ġexcess ive
Ġcr imes
P H
ĠY oga
ÃŁ en
ĠSp ot
au g
Ġun lock
ĠK at
Ġb ust
Ġsett lement
F actory
t x
Ġwond ered
Ġatt ributes
edd ed
ĠPh D
ĠiP ad
Ġextraord inary
G oogle
S upp
Ġm Ã©d
Ġhost s
Ġdark ness
Ġremind ed
Ġm u
omm e
Ġalgorith m
Ġn in
Ġinterpret ation
IG HT
Fe atures
it utes
Ġar bit
ĠN ations
Ġaccept able
Ġefficient ly
Ġparam eter
Ġconserv ative
Ġn od
Ġth irty
is ons
rol og
Ġestablish ment
ab out
Ġn est
Ġl ol
Ġmeasure ment
L ocal
ĠEnvironment al
Ġth rew
l ad
å ĸ
v ia
ug g
es y
Ġm ock
Ġref res
s y
ur se
ĠR oss
Ġdifficult ies
Ġsu cc
ĠO m
off s
ĠMar ia
ay out
ĠD or
Ġrob ot
ĠSpe ed
C ase
ĠH air
ĠE arly
Ser ver
em on
r ir
Ġorganis ations
Ġtou ched
os i
Ġinvolve ment
ect ed
Ġout fit
ĠAtt orney
ĠD allas
Ġsp ir
Ġd ensity
Ġchamp ion
ĠC ann
Ġdim ensions
get s
ĠV ar
Ġw ieder
ĠE ver
Ġmotiv ation
Ġcontact s
Ġcopy right
Ġcool ing
Ġfacilit ate
ĠComp an
ĠAdv anced
oen ix
M ENT
ol as
N ull
Ġfo is
Ġhuman ity
Ġam en
we g
ĠBes ides
x im
Ġrespons ibilities
an as
=\" \"
Ġser ial
Ġexpect ing
irl ines
AC E
Ġt iene
f ather
Ġport able
S pecial
Ġent ries
d irect
Ä ģ
Ġste am
ĠC bd
be an
ont al
Ġcompl aint
Ġp ipe
e ven
Ġbe ings
ĠF ive
own ers
it ched
~~ ~~
æ Ł
ĠAng el
Ġend less
ĠConst ruction
ĠP ra
inc oln
ĠComp et
ĠI ce
Ġconstruct ed
Ġd irty
Ġwa ist
Ġg aze
Ġc ui
en v
Ġhand ed
ĠPat rick
Ġdim ension
point s
10 9
or ical
Ġdram atic
or ph
T HE
Ġc Äĥ
Ġweak ness
un ity
ĠPro blem
Ġvo ices
æ¬ ¡
G L
sh ould
ĠPhil adelphia
ag le
Ġmy ster
st at
Ġf ue
S ur
Ping back
Ċ ĊĠĠĠĠĠ
um ble
Ġg ains
ĠD J
ci pl
Ã ¯
b urn
Ã± o
ĠM ail
Ġassign ment
ĠJew s
Ġch airs
g ithub
ĠW ire
Ġident ification
ĠT ool
he im
Ġse hr
Ġlab els
we i
Ġbeg un
in ition
Ġign or
Ġadministr ative
ĠRepublic ans
Ġd rew
Ġb atch
A h
V C
Ġdevelop ments
Ġsc roll
T w
Ġautom ated
Ġr ush
eli hood
Ġstro ke
Ġencourag ing
ac i
Ġoccasion ally
Ġan ch
Ġsh ade
Ġcap ability
ĠSte ven
ĠK ansas
ri ven
ou ri
Ġol ive
Ġdispl ays
Ġun comfort
Ġto ilet
Ġsk i
amb da
y our
ĠM E
os o
ï ¿
es se
Ġcollect ions
Ġp y
ĠAtl anta
Ġrel ating
Ġsh ips
Ġsign als
b ably
ĠSim ple
Ġt weet
C ome
st ick
Ġtrou bles
oc ate
Ġf el
Ġt ire
ĠLe gal
ĠClass ic
Ġl ub
ĠAm b
Ġre hab
Ġshort ly
Ġemp ower
r ates
Dav id
Ġen l
Ġv ag
Ġou ter
bs p
Ġharm ful
Ġde let
ĠK on
w he
ĠO cean
Ġcl oth
s ign
Ġv iral
s rc
Ġref riger
Ġb out
Ġs ist
Ġm ens
Ġassoci ate
s ur
Ġe ager
Ġsupp lier
ct x
() :
Ġk le
Â £
Ġprogress ive
25 5
Ġp up
m aster
C ong
Ġfin ishing
ĠN AS
ĠReg ional
ĠT oo
inn en
ĠW y
it udes
Ġse u
Ġlift ed
Ġstim ul
it ial
Ġdef ensive
Ġprim a
Ġa ug
Ġd ough
Ġshe ets
n atural
c in
ful ness
Ġtack le
ac co
Ġs or
[ ...]
B oth
ĠGirl s
Ġar gs
Ġlib eral
and al
Ġsp ins
Ġpract ition
Ġden ied
ĠSt ra
1 15
im i
7 50
Ġanaly ze
ĠC os
Ġwin ners
Ġhand y
Ġint ens
ĠG h
Ġass ured
Ġmin istry
Ġcar pet
Ġap olog
Ġfeed ing
ĠYear s
Ġmag ical
Ġcross ed
Ġin vention
Ġembr ace
W A
Ġbet a
Ġj ail
ĠPr inc
ĠEqu ipment
Ġt ear
ĠViet nam
36 5
Ġglass es
N E
Ġspeak s
çŃ ī
M ode
ĠL arge
Ġp ose
opt ions
Ġassum ed
z za
H ost
Ġfl ags
Ġvend ors
el and
Ġac ute
ĠH an
ĠS now
ĠT X
P G
Ġdiscuss ing
ĠJ ess
Ġsynd rome
anche ster
D eb
ĠAn ne
Ġres erve
Ġsupp ress
ĠR ound
ĠE sp
Ġreg ret
ĠThe atre
åº Ķ
ĠR ot
bo ards
writ er
Ġnews letter
Â ¡
ett a
Ġworks hops
Ġperm itted
resh old
Ġdis abled
Fr ame
St ar
Ġequ ip
Ġrep airs
Q U
AT A
Ġinfect ed
Ġcomp assion
Ġk un
Ġemphas is
ĠW ik
ĠInt ellig
ĠL ocation
Ġn at
Ġsustain ability
Ġtempl ates
Fil ter
Ġdis k
ĠPract ice
ĠOr ange
Ġb ones
as et
Ġd ancing
çĲ Ĩ
or ious
Ġdon c
ass er
D er
å »
ĠHall oween
ke ys
ĠM oh
Ġdam ages
Ġv ida
Ġcompet itors
Ġsh ield
ç« ĭ
Ã¡ m
Ġn it
Ġh ill
ĠPort ug
Ġwa ited
Ġpr inter
ĠB arn
Ġmechanism s
ĠW isconsin
Ġa o
Ġsubt le
Ġqu ando
l ang
Ed it
th ur
Ġconsider able
erv ices
ĠStr ateg
ne go
Ġr aces
Ġtable ts
ç ¦
ane ous
ĠS amsung
Ġjack et
fl u
ms g
ĠK ate
è Ĭ
p ing
=\" \">
Ġprom ises
urch ase
Ġl ap
Ġsl ip
ĠS to
Ġdest ruction
Ġnetwork ing
Ġs ull
m itt
Ġm art
ĠS F
ess ed
æķ °
ĠH op
ĠTh om
a ft
Ġcoc onut
Ġz w
Ġgu ides
ĠÂ ©
ĠG ab
Ġdies e
b ot
Ġdis ability
ol k
ern el
form ed
Ġs ir
è Ĳ
O ption
Ġadd iction
Ġmet ers
fil ter
Ġt iem
ens ional
ĠS ARS
Ġt anto
Ġgirl friend
ç ±
inst all
åĥ ı
Ġdes ert
j ar
ĠH ad
ĠT u
u int
Ġbed s
ĠB h
ij d
ç ĥ
Ġmej or
Ġoper ated
B o
ul ator
ĠMag ic
ï ¸ı
B uy
ĠOrgan ization
= ]
H aving
ä¸ ľ
æĪ ĸ
ĠNet flix
em n
Ġg rain
r ors
Ġinspect ion
Ġret ain
åĨ ħ
h n
ĠCreat ive
Ġbatter ies
Ġg ast
cl osure
Ġbr anches
Ġt ale
Ġaccompl ished
Ġres et
_{ \\
Ġsp ouse
ond o
c f
ĠS ud
Ġr ated
ĠAnd erson
Ġkey board
clud ing
Ġso ap
Ġd ressed
< ?
w ed
im ation
ĠIndust rial
ial e
writ ing
Ãª te
Ġw ard
ĠB io
ĠRe pl
oun ge
ic iÃ
am el
Ġcur riculum
Ġwell ness
olog ie
pt on
Ġrece ption
ĠCh annel
Ġen emies
Ġprotect ive
sw er
Ġhe b
m art
og raf
ĠP in
Ġjur is
AR D
Ġqual ify
B ased
Out put
ĠP ear
Ġver d
Ġpop ulations
p res
Ġle urs
ip her
Ġtr ace
âĢ¦ âĢĿ
Ġin sect
Ġsc ared
ĠG B
L ife
Ġgener ous
ĠAll en
ĠV A
app ro
ĠKore an
Ġpor que
B usiness
medi ate
ĠR u
use package
Ġpress ed
ĠAg reement
Ġload s
z one
or neys
Ġto y
Ã¡ v
Ġutil ized
Ġscr atch
ĠPe ace
Å ĵ
Ġdel ivers
Ġthrow ing
ĠY outh
ĠE sc
Ġcon cluded
Ġtim ing
T otal
cc a
eth yl
ĠScot land
sh ire
ĠN ear
ĠN az
Ġdemocr acy
Oct ober
l ow
ĠV irtual
pp ers
Ġcomple ting
Ġdel iber
v ard
ick ets
z ens
t or
ic ular
Ġdisappoint ed
âĢ ī
Ġstraight forward
Ġreve als
ĠM aking
ennes see
tr ack
L ength
Ġst ainless
uc ed
ĠLink ed
Ġt ender
Ġstake holders
ĠRe lease
Ġrepresent atives
v et
è Ļ
ĠC ry
d ouble
Ġbuff er
M W
Ġprop ag
Ġdist urb
il o
Ġcook ie
Ġconscious ness
Ġret rie
ĠMal ays
ir able
Ġdri ed
ing en
n u
ind s
Ġres erv
ath on
Ġlegit imate
Ġloc ate
Ġcons olid
pro f
Ġphys ician
, ,
Ġqu art
ĠR ap
Ġprote ins
Ġse al
Ġbott les
Ġinsp ire
Ã¡ nÃŃ
Ġb onds
ang o
Ġdur ante
h ave
ĠP ie
Con st
Ġf ed
Ġun necess
Ġconf usion
; )
ann ah
um ing
Ġpo ison
a ient
ĠAdd ress
Ġloc ally
f ly
ĠA B
Ġnur se
Ġsu its
UR L
Ġlabor atory
igen ous
Ġword en
è İ
Ġstruct ural
Ġh asta
Ġh unt
ĠChall enge
edd it
Ġresc ue
Ġvis a
est one
Ġport al
ĠP itt
Ġw ing
on te
Ġrel ate
10 6
Ġgrad ually
Ġpref erences
Ġder ived
dep th
Th rough
Ġwork force
he lp
Ġh ired
ĠN avy
p al
Ġtreat ing
Ġg host
ĠS el
Ġout s
MA N
ĠO d
as ma
Ġpo etry
ad vant
Ġret ired
çī ©
ĠMass achusetts
Ġw and
com merce
ĠSc reen
ĠN ord
Ġper ception
ĠH ills
uj Äħ
Ġsem pre
ab ama
Ġn aj
ass es
Ġmet abol
v it
Ġsent iment
Ġspecial ized
Ġinter rupt
1 12
k ers
iff s
Ġsp are
Ġlast ing
I X
ic ating
ĠRe ally
Ġattempt ing
Ġcar ing
Ġmeasure ments
onom ic
Ġpublic ly
Ġal ike
Ġve gan
ser ver
å· ´
b ig
è ģ
Ġmet a
Ġign ored
Ġl in
Ã§ Ãµes
but ton
Z E
ĠA u
Ġm aj
ĠO cc
Ġg ibt
Ġun em
J ob
ĠM L
ĠT itle
ĠLe on
Ġam er
i op
Int e
d est
en o
Ġf iscal
Jan uary
Ġth umb
Ġg au
æ ·
ĠS ydney
Ġreal istic
Ġbr ut
Ġgr inding
a que
Ġrelax ed
Ġmoder ate
Ġh ood
un ct
ĠBel g
2 10
F ound
Ġnot ion
Ġint rig
ir s
res ponse
k le
ym ph
Ġsell er
ĠFig ure
Cont rol
Ġoption al
é© ¬
Ġa rom
l oss
Ġit er
Ġhead er
on ed
work ing
uet ooth
Ġhand ful
Ġl ands
W rit
g ence
ĠMeet ing
ĠL ot
Ġimag ination
Ġcl uster
Ġhop ed
b uf
åĬ ł
ĠFriend s
ĠGovern or
ag ger
ĠMor gan
ir cle
Ġchar ity
P P
ĠS ac
Ġs ake
Ġdig it
Ġhum or
qu ire
ĠD ad
ĠF O
§ a
ĠC ow
Te chn
Ġrank ed
clus ions
Ġqual ities
ĠBe ck
Ġstri p
Ġin her
qu et
ĠAs sembly
ĠFoot ball
Ġm onde
child ren
fr ac
Ġcontroll er
f eed
Ġob j
Ġp ag
Ġre actions
ĠTra il
Ġm aker
Ġpl ates
Ġcabin et
Ġspecial ists
Ġf ought
Ġincor porate
b ool
Ġvers ch
gg ing
ah oma
k ens
ism e
Ġmed itation
Ġblock chain
Ġj s
B as
Ġj er
Ġw are
ĠApp lic
Ġr ack
ĠZe it
S K
Ġl ors
ĠB und
Ġaccept ance
ĠM ission
Ġbi ological
ill ance
Ġeth nic
ĠR ain
ĠX box
Ġengine ers
Ġd la
ãĢ Į
Ġuncomfort able
Ġvar ied
) ]
ĠSaf e
Ĺ ı
ĠIs lamic
ĠAl ways
Ġclin ic
Ġline ar
Ġv ra
ãĢ į
ĠOnt ario
ĠB us
p ur
ĠV ent
Ġneighb ors
is en
I AL
ĠO bs
Ġarrang ement
Ġt ours
ĠG O
Ġwhere ver
ip edia
Ġfl esh
ĠH ung
ĠSt op
Ġprodu cers
ĠA G
Ġelect ro
ĠSt ream
Ġautom ation
ing ham
ĠPost ed
ĠM ine
er ver
ust ral
Ã¤ ll
par se
ĠG il
d ocument
Form at
Ġbr on
Ġexper iments
ĠM B
ĠTh ird
r ons
ep s
Ġbr ick
at on
us a
Ġunf ortunately
uss y
Ġch opped
Ġrat ings
ke e
e ared
Ġpo em
Ġk g
ĠB ull
ĠMatt hew
Ġca f
â ĸ
ĠBow l
ĠCopy right
çĶ ±
n umber
ur ious
om p
Ġl ately
Ġf ails
ĠEd ward
n ings
Ġd ip
ÃŃ st
Ġold est
Ġst ere
ĠGal axy
Ġv oy
ĠLe ave
ĠN at
ĠH ur
Ġcomp ly
v or
V P
Ġadv ised
Ġdepart ments
ĠReg ion
ĠWh ats
Ġgr asp
ç ĭ
ĠPl atform
Ġpen alty
paren cy
ĠAuthor ity
ĠĠ Ċ
éĹ ®
ä» Ģä
ĠCo ffee
Ġflo ors
ç ´
ĠB or
Ġident ifying
Ġsymbol s
im os
k an
ĠHT ML
è¯ Ŀ
ĠHarr is
ĠInd eed
æ ĳ
ĠT ools
Ġlight weight
Ġe rect
Ġpres erve
Ġcom edy
æĸ °
Ġb om
att i
f inal
Pro cess
at tered
ĠB ab
Ġir re
Te ch
Ġst ays
ilit ary
Ġster oids
ĠW E
Ġro cks
Ġcur s
ĠA th
ĠRep resent
par ams
æĭ ī
Ġdiscipl ine
Ġrespir atory
Ġsh orter
Ġsimultane ously
Ġhand led
g raph
Ġse gu
ĠAff airs
d rop
ĠD ocument
Ġcr Ã©
Ġentertain ing
un i
ĠC ulture
ber ries
Re al
Ġsupp orters
. ).
as ures
Ġla wn
Ġsu icide
ĠMem orial
OR D
Ġcent uries
un it
Ġback ed
Ġaud it
/> </
ĠRec ords
Ġp df
am ins
ĠCommun ications
Ġsophist icated
tain ment
åĪ ¶
Ġrequ iring
ch at
Ġsoc cer
ar ant
s om
ic io
Ġr am
ĠSchool s
Ġmat rix
Ġaccommod ate
Ġdys function
Ġtox ic
Ġna ar
Ġpersonal ized
é ľ
Ġt ant
ĠH it
ars er
Ġisol ated
ĠJ oy
Ġrh yth
ac ji
Ġon der
ĠH art
Ġab ortion
Ġattempt ed
Ġread ily
A K
ĠI B
Ġtem ple
ĠR aj
Ġcount s
Ġtransfer red
Ġsu o
Ġaccompan ied
ĠT arget
ĠE duc
ĠT y
Ġst abil
Ġtrans f
Ġcom ic
uit o
c zy
Ġselect ing
? .
I ES
he ight
ĠS ant
Ġbro ker
m u
Ġaff airs
s ystem
Ġprov isions
ribut ed
rapeut ic
P an
ap a
Ġimplement ing
Ġpre val
Ġre vers
ĠAfghan istan
S ing
S upport
Ġdesign ing
ak h
Ġpot atoes
Comm and
Ġachie ving
ou st
Ġsing les
at ers
ĠPrem ium
Ġfo am
ĠN ik
Res ource
Ġsepar ated
Ġres il
è¿Ļ ä¸ª
Ġf ancy
Ġl uc
iz ard
ĠTr ack
T ypes
ĠB ird
Ġdis se
ĠContin ue
ĠS weet
ĠD utch
Ġg ust
Ġpen et
t z
D ig
att an
Ġcal c
Ġw o
ric ht
Ent ity
qu arters
Ġint ensity
Ġexc use
ĠF le
Ġflav ors
umb ing
bour ne
ĠOx ford
Ġb oring
ĠDef ense
ĠD oor
ric ks
Ġher itage
T T
Ġimmig ration
Ġa insi
18 1
sp ace
sec ond
Ġh arsh
Ġn aked
Ġbound aries
Ġproport ion
Ġalleg ed
ost a
Ġnut s
Ġal uminum
Ġma ar
Ġhor rible
l io
Ġbeautiful ly
inn ed
ap olis
ĠÃ ¡
ather ine
l an
Ġr ings
Ch ange
Ġut ter
Ġsignific ance
é ¦
N OT
Ġadv ise
ric ts
Ġrece ipt
Ġpharm acy
Ġcompl aints
ĠP il
u u
ĠL ock
æķ Ļ
æĽ ´
b n
ĠAss ess
S al
Ġinspir ing
Sh are
Un it
Ġreg ime
P op
un ci
att a
ĠShe l
Ġimpl ications
met ic
Ġsatisf y
Ġread s
ĠP rior
Ġprob ability
ĠAtl antic
Ġc ela
Ġp unch
Ġl id
Ġmarket place
Id ent
Ġpow ered
on n
s end
r il
ĠTechn ical
Ġas c
Ġex ecute
17 5
hes is
Ġrom ance
Ġfle et
IT E
ĠG ene
set t
Ġn ail
Ġsw all
cl ose
ĠJ obs
is o
ĠH um
Ġw ore
Ġpar ks
Ġd av
ĠB ron
ĠMex ican
ist as
ç¬ ¬
ĠTem ple
ĠO ptions
path y
Ġcritic ism
rag en
ĠCapt ain
ad ows
Ġtim ely
Ġwal let
Ġmem br
ing o
Ex per
######## ########
Ġfund ed
Ġdeal er
Ġcar rier
ĠSh ipping
ĠFr ame
Ġbar rel
od o
D ear
Ġult ra
em en
Ġdiscount s
ĠR ou
Des ign
Ġarrang ements
Ġdisp on
ĠAn na
un ting
id el
Ġgl uc
r idge
Ġle ver
ĠMary land
ib ilit
ren cies
Ġpath s
Ġco pper
Ġc ure
Ġdisag ree
Ġdecre ased
Ġint u
pro v
Ġdead line
Add itional
Ġpro d
Ġgrab bed
Ġkne es
Ġp H
Ġke en
Cont roller
Ġand ere
Bl ue
Ġthe ater
B uffer
Ġart istic
10 7
ĠI owa
blog ger
Ġbless ed
ĠMult i
p aper
res se
00 2
ĠC ream
af il
Ġb ell
au er
is ure
Ġvari ations
N ovember
in itely
Ġcustom ized
ĠIm ages
Ġso fa
Def ault
M att
ĠInd ivid
> =
Ġtr ucks
Ġexclus ively
Ġre nder
st ock
ĠF ant
is hers
ign e
Ġint ake
m aker
Ġcomp osed
Ġshe d
ro st
Ġup gr
Ġst ared
Ġar med
Ġco inc
oh l
æ »
Ġcomplex ity
Ġf et
ĠÃ© gal
arch y
pro ject
Ġspect acular
Ġsec ured
j ours
Ġh int
F unction
ĠLead ership
Ġhome work
ĠIndian a
m ake
Ġjump ed
ĠD A
Ġdev ast
arl o
Ġrefer ring
ĠT ell
ĠP as
Ġcount less
æ° ´
Ġch ains
Ãª t
ĠAgr icult
Ġdefe at
ĠC lear
Ġtext s
els on
Ġall er
. ;
S orry
ad t
ĠMo ore
ĠTreat ment
cept ions
am an
Ġridic ulous
ĠEl le
ĠG ift
al pha
ĠF eder
ĠA w
o ire
igh ters
ĠD ragon
Ġbel oved
ĠR A
ĠPost s
Ġincor rect
Ġpur ple
Ġel abor
ĠF em
Ġposs ession
ĠAnth ony
l ate
ĠSt orage
pt ic
Ġload ing
Ġpart ial
Ġper pet
kl ahoma
ĠUs ed
ĠVict or
Ġche er
Ġdim in
ĠÃ ¢
Ġfavor ites
c rit
asp oon
Ġprospect s
ĠSom ething
Ġt une
Ġd Ã©s
ch ant
L abel
ĠL incoln
ĠSim ply
Ġs its
è® ©
Ch apter
Ġr Ã
çĽ ´
Ġtra uma
å® ī
Ġing redient
u ations
ĠCom mercial
Ġboy friend
Ġuncertain ty
f amily
ci um
å¤ Ħ
omm y
Ġinflamm ation
Ġj ag
åı¯ ä»¥
ar Ã¡
c ze
Ġvac uum
ig ration
k it
p ol
Det ails
Ġexperiment al
or b
ĠF eed
ĠG iven
ĠPl ayer
Ġtour ism
åĽ Ľ
Ġrestrict ed
Ġcelebr ated
ĠGr ace
T im
ĠAlex ander
C reat
Ġeff ic
Ġtown s
Don ald
ĠHam ilton
win ning
Ġnic ely
Ġal ors
Ġentreprene ur
ist ence
Ġvers atile
ades h
Ġpoint ing
Ł i
app er
Ã¤ ch
ĠK al
ĠS ay
As k
Ġmo ins
ow y
ap or
ĠAr k
ĠFore ign
Ġrank ing
ĠS leep
e urs
ĠBe gin
ĠJ oin
am ents
Ġpolit icians
ire ction
Ġsty lish
Ġsqu ad
åı Ĺ
ri k
Ġpass engers
ĠInd ones
../ ../
ĠB ear
Ġcry stal
Ġaccommod ation
b ian
en ne
Ġrece ives
\" ))
å£ °
Ġv u
tr as
Ġpublic ations
è¡ ¨
p red
G ame
æİ ¥
ib li
Ġmotiv ated
Ġsh ake
ĠB rew
Ġdiff er
ĠCom plete
Ġgl ory
Ġany time
Ġpast a
Ġact ress
spe ed
ar ity
ç ¨
ĠL inks
ard less
ĠG re
Ġdes p
Ġacknow ledge
Ġdiam ond
Ġg ri
13 5
form ing
ut z
Ã Ĥ
Ġpro g
ĠStr ategy
U C
ge red
Ġtour ist
Ġk ter
Ġanc est
ĠB O
ÃŃ an
Ġgr ants
ne um
Ġround s
em ade
_ ,
æ ¶
m d
Ġn un
oc ity
ĠÃ §a
g reen
Ġon ion
Ġrecommend ation
C ap
ĠN urs
éĢ ļ
Sty le
ĠU I
ĠDe al
Ġauthor ized
S che
Ġworth y
C are
ateg ories
Ġess ence
Ġnutri ents
Ġsal v
j ÄĻ
Ġs isters
Ġn Ã©
. *
Ġsupp lied
Ġacc idents
ĠR ick
Ġa kt
ĠCh at
M art
ĠC raft
Ġre vel
Ġcar ries
Ġl av
h ole
Ġsc oring
ic hen
St at
ĠAct ive
ĠDom in
Ġtiem po
Ġh orn
ĠPart ner
Ġshel ter
Ġvibr ant
j oin
Ġm asks
ct ic
nt e
Ġprocess or
Ġwarn ed
ĠCom b
Ġint end
Ġc rop
Ġoffer ings
ĠC u
Ġcons ervation
Ġn odes
ĠS W
ĠIn n
re ach
Ġref lection
ĠRec ord
ent es
Ġne at
Ġrout es
Ġp ac
st ell
Ġref use
Ġbes ides
ĠBe at
am ous
ĠL ux
Ġhung ry
ose x
ĠV eter
Ġvari ation
ĠB ureau
Ġtem p
ĠT ennessee
ĠCo ord
rat ulations
Ġm urd
Ġreflect s
g ro
ĠVal ent
ĠT a
18 2
Ġout doors
Ġle ak
b uy
Ġinflu enced
T ION
Ġcollect ing
Ġs ons
Ġmod ules
x ide
ĠEm pire
F urther
Ġtw ist
Feb ruary
arm s
ipp i
ĠNet her
ĠC her
at to
Ġle ase
Ġaddress ing
red d
W as
ac ia
Ġblog ging
Ġneg lect
j Äħ
ĠE S
is an
al ign
pect ives
ĠD rug
Ġil s
on er
åģ ļ
Ġch ol
ĠB alt
k on
ĠĠĠĠĠĠĠĠ Ġ
Ġcontract or
ide os
Ġterm inal
in as
Ġengine er
Ġpresident ial
g mail
ĠCom pl
Ġoblig ations
Ġz n
Ġprevent ing
ac a
ĠD est
Ġst airs
Ġcogn itive
ĠDise ase
Pr int
Fr iday
{ \"
Ġgen es
å¤ ª
ĠL oad
Ġch urches
Ġv y
ĠW orth
P s
Ġt ends
Ġcomp ound
ĠrÃ© g
C ard
Ġview ers
Ġsh aped
Ġart work
ĠH om
ĠE aster
W H
Ġt ies
Ġn ad
Ġm os
ĠM anchester
ail and
Ġachieve ment
Ġp ockets
Ġart ic
Ġexam ined
D at
Ġr uling
ä¿ ¡
r ice
ĠS urg
ĠAll iance
Ġtechn ological
Ġsuggest ing
Ġpl acement
] :
Ġr ational
Ġcomment ed
m outh
P aul
ĠGet ting
Ġfl ip
II I
Ġend e
Ġsw ord
Ġd ub
Ġoper ates
Ġdesign ated
Ġaud iences
Ġcorpor ations
Ġprof ound
Ġd ol
ier ung
Ġpartic les
æĦ Ł
Ġm ice
Ġarg ued
çļĦ äºº
ĠÃ©gal ement
ĠN EW
b ank
p read
Ġstri king
ĠAnt i
Ġtreat s
ĠN BA
ĠDel hi
Ġbet s
roll ed
Ġdiam eter
ĠW rite
r Ã¡
Ġte aspoon
us cript
ĠF er
ĠRes pons
Ġbl ade
Ġretail ers
ĠBel ow
List ener
Ġb ay
Ġfriends hip
oy d
Ġperm its
Ġprec ision
Ġm ales
Ġsubscrib e
Ġfac ial
Ġfr ames
Ġcle ver
Ġcitiz en
Ġrem inder
Ġagric ultural
Ġclos est
Ġicon ic
Ġrelax ing
al ous
lish ing
ĠUt ah
Ġv est
Ġpat ience
N Y
Ġl Ã¤
ut er
wh ite
Ġsuggest ion
S U
Ġagre ements
Ġd ern
Ġmix ing
Ġar c
Ġtremend ous
ĠB attle
Ġw age
Ġd ich
Ġpers u
Val id
ul ent
Ġwild life
Ġgrow s
ond ition
Ġsh oe
ĠA y
ĠWith in
Ġsk ip
v ous
Ġcur ios
f ix
mar ks
he id
St ore
AP I
ef ined
Ġsc ary
Ġad orable
Ġs Ã¥
Ġre dd
Ġent ities
C ent
Ġin clusion
M c
Ġfra ction
ĠR ab
n cia
Ġf ot
ne ath
Ġf ract
Ġen abling
ĠM u
Ġdeterm ination
S am
Ġde ze
æ¯ Ķ
ut her
ĠAl i
build ing
l as
Ġag ing
) $
ĠS everal
ĠF DA
Ġpal m
ĠR ail
Ġpast e
Ġout let
E ducation
anc ouver
ĠN ach
ĠLO VE
ĠH ell
s upport
Ġdec iding
Ġret reat
Ġsil ly
ÃŃ cul
Ġpeace ful
Ġking dom
En ter
Ġd onde
Ok ay
Ġat e
M aterial
Ġgl ance
Ġsch on
f old
Ġfast est
Ġmob ility
Ġst iff
Ġr if
Ġe j
ĠT rain
Ġmain stream
Ġarr anged
Ġvacc ines
M edia
op es
Ġlog ical
Ġcons ume
omet ric
B re
3 20
Ġt ennis
ĠMon itor
b ul
Ġsurg ical
Ġst ones
Ġdon ations
17 9
Ġm og
ĠCor p
ou bt
Ġfil ing
Ġmod ify
Ġmort ality
Ġpharm ac
w ie
' ),
ell ers
oles ale
S en
Ġam id
ĠT E
ur u
Ġint r
be at
åı Ĭ
æ ®
Ġl oro
ĠD ra
Ġbuild er
ĠrÃ© al
Som etimes
mod ule
ĊĠĠĠĠĠĠĠĠĠĠĠĠ ĠĠ
Ġso y
é ª
ester ol
ĠImp act
Ġc od
ĠOr ig
Ġfear s
R ad
kt ion
M icro
v als
ial og
ĠDiam ond
Ġobs ervation
Ġdiagn osed
s elling
Ġaw ful
Wh ite
ĠRestaur ant
Ġintern ation
k ward
èµ °
Ġcomm ands
æµ ·
Ġemer ged
Ġmar ijuana
Ġw ound
åį Ĺ
å£ «
Ġgrad uated
iÃ ±
Ġd ive
Ġmin eral
ad ays
Ġcol ored
ve ctor
Ġsoon er
row ing
o qu
G reen
ĠK y
Ġmut ual
ĠCh i
ĠMet al
Ã§ a
e u
L D
) -
j an
Ġdiff Ã©
Ġcons c
F ace
Ġn og
idd ing
Ġindepend ence
Ġpo k
un que
at ility
Ġd alla
Ġp airs
ah n
Ġmon etary
Ġconvert ed
Ġco aches
æı Ĳ
Ġl amp
po ons
Ġf ost
Ġd ice
ĠT rib
ĠCh ap
ĠAl abama
Ġtrad itions
Ġmod o
RO M
% ;
ant h
ĠFollow ing
2 30
P I
al ia
Ġj ourn
ides pread
Ġfund ra
ord on
Ġland sc
Ġreject ed
ĠM C
Ġ ic
own ed
J ack
Ġshel f
Pl us
Sh ould
e lect
Ġo ct
ĠM ale
Ġ io
Ġbank rupt
ud ge
worth y
] ]
Ġt el
Ġdetect ed
ib ile
ĠAl t
ion a
Ġm ate
ĠR isk
Ġed ited
B L
Ġunnecess ary
Ġbi as
è į
Ġs Äħ
ick er
ĠBon us
Ġw ings
Ġlaugh ing
s ki
Ġas h
ict ions
ask et
Ġcu is
He ad
f re
è £
effect ive
Ġinvest ed
Ġseem ingly
Ġc zy
ri el
Ġav oir
Ġv Ã
éĹ ¨
Ġenc ont
ĠD raw
Ġdes ires
ĠE C
Ġorgan ize
Ġfail ing
r ane
Ã¥ r
12 7
Ġtou jours
Ġcand y
å¸ ¸
Pro t
ĠRep air
E p
om ed
Ġc ater
and ra
Ġso it
N ever
Ġbar rier
oll ar
P o
IM E
ĠEs pecially
Ġnot ification
as a
al so
Ġdro pping
æĹ ı
g un
Ġdiscrim ination
Ġblock ed
Ġcru ise
ĠS alt
ĠS QL
ĠBl oom
yl on
âĢ¦ ..
Ġaccept ing
Ġtit led
b ird
Ġet t
Ġbad ly
Ã©t ait
Ã¤ hr
Ġtut ti
id y
S ocial
Ġc ache
Ġe arning
Ġtom atoes
Ġimportant e
Î ±
Ø §
Ġfl aw
ĠÃ ľ
Ġint imate
Ġdemand ing
M ichael
Ġm l
k n
ĠAd vis
R est
ĠM arsh
ĠF ocus
ĠChamp ions
Ġep ic
ĠD ol
Ã© ment
ĠL am
Ġvol unt
Ġeth ical
Ġnavig ation
ure rs
Wind ows
anc o
Col umn
åŁ İ
g ra
================ ================
Ġt sp
ĠR T
De cember
Ġdiv ine
f alls
St ill
b ad
Ġsec rets
ĠI R
LE S
ĠEnter prise
Ġrad iation
L os
R ich
Ġst olen
l os
J ul
ĠH A
Ġtr icks
Ġpoll ution
be y
ĠMiss iss
?? ?
ĠCharl otte
Ġpaint ings
GB T
Ġcreat ures
Ġcontinu ously
Ġadjust ed
f on
ĠB BC
ĠDI Y
Ġto ll
Ġes per
Ġad oles
ĠPar liament
ĠS end
ĠDe an
Ġprior it
ĠF alse
M R
Ġcare ers
ĠOr iginal
ĠCr usher
ĠW ant
Ġr im
Ġclaim ing
s chool
ov iet
e j
ĠT ask
Ġconsult ing
ĠCl ient
Ġdirect ors
ĠE urop
M er
Ġf ier
ro le
ib il
ĠPart icip
Ġoverse as
B it
Ġn ick
ĠF ish
Ġphotograp her
) ?
Ġgovern or
TY PE
Ġsens itivity
R ob
ĠMar ine
. /
ĠAr gent
Ġlo vers
land o
ur as
Ġvis ibility
ĠB uck
at iva
ĠR ing
ot ing
Ġlaws uit
Ġfort un
re ck
Ġprom ising
ĠFranc is
Ġoblig ation
ĠD ry
crib e
Ġin hab
ist ically
ä» »
p rop
Be aut
ĠC ass
ett i
ĠD oc
ĠH ence
D as
ĠGu id
Ġche f
Ġcos a
Ed itor
G raph
ĠLic ense
Ġm akers
ĠKent ucky
Ġbul let
Ġexc ell
l ooking
ĠR at
¹ ³
Ġover t
ĊĠĠĠĠĠĠĠĠĠĠĠĠĠĠĠĠĠĠĠĠĠĠĠĠ ĠĠĠĠ
Ġtout e
d riven
Ġmus h
ĠT ogether
augh ters
er ie
Ġun limited
c ost
Ġv ocal
ĠF ashion
Ġexpl aining
Ġequ ation
ĠVis ual
C ore
omm ended
ĠEn h
ĠSol ar
Ġor az
Ġcomp ounds
M ac
e ft
m ay
ĠLu ke
Ġwithdraw al
Ġdo zens
Ġaccomp any
Å º
Ġpan ic
ĠT el
Ġpract ically
Ġj us
Ġrad i
W ould
ĠK a
r ating
ud io
ĠL oc
ĠBas ic
Ġw ars
ĠTe a
ĠBen efits
ĠPrem ier
inst ance
ĠChamp ionship
vo ir
Ġsound ed
Ġcan c
ĠAud io
ĠHow ard
st airs
Ġbenef ici
Ġex em
Ġto wer
St and
Ġc raw
Ar g
Ġs Ã
ou v
ĠP ant
ĠV erm
ĠT ro
P os
T itle
________________ ________________
ĠL uck
iÃ §
AT H
atter y
ĠE le
Ġje ans
ĠCon fig
Ġabandon ed
ĠPh oenix
Th ree
Ġbar riers
Ġp ale
æ ¡
i y
U K
Ġcomput ing
ĠF resh
Ġaut or
Ġdel icate
Ġser a
Ġperson as
ty pes
ç» Ļ
Ġdocument ary
ĠClin ical
s um
op ic
ĠMed icare
ĠW ales
ĠThe rapy
ĠP ink
ĠL isa
Reg ular
Ġanim ation
ĠOther s
Ġlau ndry
A lex
Ġar ise
Ġveter an
Ġf on
Ġelder ly
Ġp ist
Ġn erve
ĠH oll
Ġres on
Ġeas iest
< =
Ġb ent
Ġs ar
Ġinstall ing
ĠO klahoma
Ġprov ince
Ġmeas uring
un ny
Ġpre ference
et z
Ġinf ant
Ġc ave
cont rol
ĠNether lands
he ld
Ġcalcul ate
Ġrep rodu
T om
IT H
ien en
ĠS ony
Ġsp at
Ġsuper b
ĠD ress
Ġmar ry
Ġra z
L at
iÃ Ł
zen ia
ĠCompan ies
Ġl avor
Cl oud
om eter
ĠG ate
Ġpress ing
Ġcont rad
Ġscen arios
Ġmet rics
uts ch
j ob
IC K
Ġlock down
D raw
Ġsc rap
ĠCo ach
r ank
Ġgu ided
Ġconv ince
ĠNot es
Ġre un
Ġp ile
ĠðŁĺ ī
Ġthere by
Ġjun ior
Ġm ich
Ġsurv iv
me ga
Ġobserv ations
Ġmod es
P ower
ĠConst itution
t wo
Ġfunction ing
Ãº blic
Ġconfirm ation
Ġsubm ission
ĠR ather
J ames
el o
l ace
ĠJac ob
Ġintegr ate
Ġs ang
Ġw elfare
Ġtw elve
Ġburn ed
C e
.. ...
Ġf oss
ĠSpr ings
Ġh iding
Ġdon ation
Ġtest osterone
Ġmig ration
ĠC old
App lication
Ġappro ached
Ġriv al
S an
Ġmin imize
Ġloc ks
Ġcou ch
A E
l ag
ĠâĨ ĳ
Â ´
ĠCl ark
åĨ į
W est
rem ove
il or
ier ra
[ @
Ġpass enger
Ġremind s
C opy
ĠDet roit
ic ts
Ġpost er
ilit ation
Ð »
ĠK le
æŃ »
Ġsu is
ĠĠĠĠĠĠĠĠ ĠĠĠ
en en
ĠGree ce
ĠMov ie
Ġd umb
ion ed
Ġresist ant
Ġadvoc ate
Ġpre view
Ġdeterm ining
Ġcompet ing
ĠBru ce
Ġcontain ers
ĠComm and
comm on
ĠReg ister
Ġvan illa
Ġp icks
hor a
Ġappe aling
Ġthe oret
ĠEnter tainment
V AL
ĠMiss ouri
ĠC re
-------------------------------- --------------------------------
Ġm undo
Ġrepeated ly
Ġf n
Ġo c
Ġph osph
æľ Ŀ
Ent ry
Ġh oly
Ġanticip ated
ĠG T
Ġg oogle
ĠY ellow
A G
uel le
æĢ §
Ġcle ans
Ġstart up
C ategory
Ġform ats
N ET
Ġcr ushing
Ġr anges
Ġsh ipped
ĠDiff erent
le ans
in formation
Ġl over
ĠCh icken
E uro
Ġcon form
Ġb il
ĠU C
Ġtout es
gn i
V ar
H R
ĠIn novation
Ġau ction
Ġmanufact ured
ment ed
Ġaffect ing
Ġmount ed
Ġworld s
level and
Ġregard ed
print f
Mod ule
ĠN ative
Ġmem orable
Ġbr ide
ĠB R
Ġcan vas
. ),
é ħ
Ġport ray
ĠRes erve
Un iversity
h s
Ġexhib it
aj a
ol ver
Ġv et
ĠS S
Ã© qu
Th ough
ern ess
Ġg aining
çľ Ł
ĠK ings
In formation
Ã «
ĠI F
iz ers
11 3
cy cl
Review s
ĠHun ter
ĠAnton io
12 1
P ublished
ĠN ich
ĠRes ource
Ġenjoy s
A ir
it Ã¤t
Ġimpro ves
Ġsepar ately
Ġbehav iors
ĠDen ver
ĠSur vey
empt y
m us
Ġaut onom
Ġprior ities
rit is
sh irt
æī ĵ
ĠB Y
Ġdress ing
Con clusion
o vers
Ġgovern ance
Ġwhe at
ari able
Ġsacr ifice
ĠReturn s
M arket
> ,
anc el
Ġess ays
b f
Ġt ile
Ġm ast
Ġcatal og
Ġp oco
itzer land
ÃŃ c
An n
L P
C ity
ro c
Ġatt ribute
Ġbuild s
p in
ĠSt atus
sc ar
Ġw idespread
GE R
He ight
col umn
Ġreflect ed
ĠPhilipp ines
C am
h uman
Ġcou pon
Ġpu is
Ġac res
by te
Ġle verage
ĠCam bridge
sh ine
Ġoptim ization
Ġsepar ation
Ġexpl oration
ĠUs ers
G old
Ġbroad er
Ġsh ine
Ġden y
Be ing
Ġe igen
Ġk o
ĠU V
Ġcolor ful
ĠF el
Ġdev oted
Ġpres um
n or
Ġtut to
Ġglob ally
z w
p are
Or gan
Ġj ury
Ġann ually
Ġl bs
S il
ie v
Ġinstitut ional
Ġgard ens
Ġc ush
ĠK ath
ĠAdminist r
Ġf oster
ars i
Ġwat ches
ĠW edding
pt e
Ġgive away
Ġf itting
Ġlibr aries
l ung
Ġclass ical
ze ch
Ġclar ity
d ale
ĠV PN
Ph ot
Ġagric ulture
g ate
Ġclass ified
Ġconf idential
Ġhighlight ed
Ġfre ely
M a
Ġinvest or
Ġquiet ly
ist o
m ode
Ġas leep
ĠDel ivery
P ORT
ĠV ac
att oo
Ġthe sis
Ġunder neath
Ġcompl ications
Ġcryptocur rency
h at
ĠRes ort
H ope
Ġinform ative
Ġsupport ive
Ġaw kward
Ġmoment um
Ġattack ed
Ġhold er
Ġtip o
ĠB row
Ġg an
ĠGr an
Ġlib er
k ov
Ġdem o
ĠSk in
re nder
Q UE
ĠR ace
l oc
ĠF an
qu al
ret ion
Ġtr as
im en
Ġnow here
Ġreli ability
av el
ĠPalest in
ĠIsrael i
ĠG esch
Ġper ceived
Ġclimb ing
Ġcompan ion
ĠAd vert
Ġch amber
Ġd ÃŃa
Ġmus icians
ĠF alls
er on
Ġqu ilt
ĠW ine
CT ION
Ġl leg
éĺ Ł
Ġas ÃŃ
or us
Ġhom eless
Ġfem ales
Ġindic ator
Ġv ic
head er
Ġsubst ances
oth y
Ġque en
ful l
er os
opt ion
Ġsaf er
Ġre vis
app ropri
Ġcontribut ing
g ang
ĠAnd y
ĠDub ai
Ġt ires
op les
enc il
W ater
Ġsee ks
Ġtra ils
11 8
Ġmagn etic
Ġhyp othes
. Â»
Ġs yst
oot ing
åħ Ī
Ġman ually
Ġdyn amics
ĠThanks giving
g reg
Ġatt orneys
ĠT ru
Ġorder ing
Ġsubst itute
åħ ī
Per haps
Rem ember
Ġcourt esy
Wind ow
Ġel ite
ĠE ye
to ken
Ġcontract ors
Ġcry ing
Ġqu and
Ġparticip ated
Ġbur ied
ĠP ad
ĠT am
W ant
ĠS ustain
ĠL ater
N ational
Ġsusp ension
ĠâĨ Ĵ
un ks
ĠW elcome
ĠAn imal
Ar ch
ĠH et
ĠUn like
ĠFl ash
Ġtrav ail
é ĵ
Ġhealth ier
d ist
Ġf ence
ĠFl oor
Pro gram
ĠLa ura
ĠZ oom
t em
ĠHar vard
Ġre aches
u w
ĠD al
Ġac ids
ĠT ar
Rec ent
Ġappreci ation
M onday
v ada
Ġpra ise
Ġmother s
ĠBeaut iful
, \\
Ġpet ition
for ced
Ġne ur
Ġrac ial
Ġveget able
Ġin herent
è ¨
ir ates
Ġb arg
ĠW ait
ĠInvest ment
ĠOlymp ic
own er
ç ł
Ġspe eds
Ġb ast
Ur l
Ġdelight ed
ob il
Ã©t Ã©
ĠG a
ubl isher
p ub
ĠF unction
Ġleg ally
Ġad verse
arn a
ĠBeaut y
ĠH ERE
Ġm ud
T arget
ĠC atal
ĠN J
US A
li est
Ġr amp
ĠCharl ie
Ġgener ator
Ġscholars hip
alt ies
Ġtr ash
Pl an
ĠC E
\\ [
Ġz d
Ġactiv ation
ogen ic
m atic
Ñ ĥ
z el
ĠWh it
Ġmes h
ĠCert ified
ÅĤ ad
Ġphys ics
at ured
Custom er
ĠV or
Ġdo ct
othe rapy
Ġdis advant
ĠS ad
iot ic
Ġbre ed
é Ķ
l on
Ġdownload ed
99 9
Ġpro long
Ch ina
Rep ort
{ @
å ĭ
Ġpro ces
ir ation
ab ul
Ġin clusive
Ġrem ed
Ġhand les
Ġintegr al
it os
Ġit al
Ġpat ent
ĠEmer gency
éĩ ĳ
Ġl ug
Ġteac hes
W idth
ĠF ern
Ġsc ent
Ġre nov
P our
st age
Ġcont en
Ġcompar able
Ġf aut
j our
Ġgood ness
Ġthreat ened
Ġapr Ã¨s
Ġd are
è ±
che ll
ĠM and
an im
ĠJ oh
RE AD
th od
arent ly
ĠN ice
agg io
Ġp orts
em i
Gl obal
ett es
an qu
Ġder iv
ĠUk rain
grad ed
Ġst ats
inn amon
Ġra g
ĠHe at
Ġl ighter
Ġto e
ink le
Ġtrad em
ĠBet ween
ĠV o
aut h
S aturday
Ġinnoc ent
ĠT ab
ĠD ance
Ġcamp ing
Ġclos et
Ġpro pose
Ġstr ings
Ġexecut ed
ĠUr ban
Ġl ou
åĲ ¬
Ġst aring
ĠÅ ¡
oll en
am med
ĠL ane
ĠR d
Ġquel ques
ĠPh ill
Ġl un
i per
omm es
ĠAdd itional
Ġcolumn s
io xid
ĠG PS
Ġcost ly
Ġver se
ĠÃ© v
Ġcor ners
Ġpe ers
ĠF E
Ġsu ited
f und
Ġb a
ĠJon athan
ĠChe ap
s n
ĠW A
ed u
Ġpredict ed
ĠB oot
Ġrepl acing
ann ers
Ġp ine
Ġacc ent
Ġvar ieties
Ġhar ass
Ġdis par
ĠN A
Ġsat ellite
P osition
iÃ¨ res
Ġfun eral
Ex pl
in fl
Ġmol to
Ġd orm
ĠC V
ĠMad rid
Ġl ag
Prof ess
Ġwarm ing
åĮ Ĺ
ĠMay or
Ġres olved
nown ed
ĠEd ge
ĠT yp
ĠTur k
Ġestablish ing
Ġdies er
ĠE R
ĠG A
e fficient
Ġfl ows
cent er
Ġf ate
iov ascular
Ġtarget ing
Ġmo i
Ġcomp elling
Prov ider
! ).
iv os
GE T
ĠB L
Vis it
ub s
B ay
ĠRev olution
am en
Ġave va
LE D
Ġpros per
n Ã
us ive
ac hers
ĠEr ror
In gredients
Con f
Acc ount
Ġe book
ĠG round
if iers
Ġcon secut
Ġpart ir
Ġbu zz
ĠP erm
ĠIt em
Ġcle ared
Im port
ĠJud ge
ĠAl ong
ĠS oviet
ĠWh atever
Ġind irect
Ġfe ver
Ġcolleg es
Ġover ride
ĠTh ailand
Ġmar ine
hal ten
11 6
ĠAr ray
ĠM I
ĠR ange
12 2
Ġbu gs
Ġaut res
Ġey eb
gl as
L ayout
1 19
n ost
ret ty
è§ £
ar ound
ĠH ans
¾ ¹
ĠU ne
ĠSp iel
Ġspecific ations
Ġarr ange
ĠS au
ĠRes ponse
t mp
Ġb od
ĠB art
L ight
im ore
n ym
ard ing
Ġo v
åĲ Ħ
t c
Ġsus pected
Ġvari ant
Ġpro l
og g
sh ore
ĠB ou
Ġavoid ing
Ġattract ed
ĠCast le
Ġminor ity
ĠMc K
ĠR AM
Ġg ly
e en
Ġvol tage
Ġprof itable
Ġstri ve
Ġpat io
å°± æĺ¯
Ġd ock
le ading
Ġflo ating
b uffer
M aster
Ġwood s
ĠR achel
ĠR ank
Ut ils
he ll
Ġg ad
Ġqu ad
Ġv id
11 4
Ġb ree
Ġbed rooms
ra z
ĠAssoci ate
Ġhaz ard
Ġtherap ist
z ent
ĠH ug
as ters
ĠJ en
B ER
c opy
g on
Ġisol ation
Ġbel ly
Ġopp onent
ĠCor porate
Ġland ed
Ġroy al
åı £
um bers
ut i
y cle
Ġas ync
l Ã¤
' ).
Ġbe ating
iot ics
ĠWalk er
ĠS ummary
w end
ĠM all
T erm
Ġthe atre
In c
r ust
Ħ ¿
{ {
Ġblank et
Int erest
è· ¯
V e
usal em
h ill
ĠM essage
ox y
Ġconsist ency
ĠP y
Ġre de
ĠPan el
S outh
Ġz ip
Ġspec ify
Ġassum ing
ĠPro duction
Ð º
ĠÃº lt
P ER
Ġtrans parency
ro v
ph ant
Ġphenomen on
ĠA part
Att ribute
g ov
Ġthe ories
Ġc ited
Ġro ws
Ġbl oom
åı ĸ
ĠG R
ĠK om
ĠÅ Łi
Ġcontr ary
` ,
Ġshock ed
ĠCurrent ly
Ġannoy ing
ĠSu ite
and ise
ĠS K
Ġshe ep
ĠSwed en
Ġh ills
Ġvol umes
Ġmand atory
Ġvacc ination
Ġpresent ations
Ġal ien
Ġtre asure
Ġcelebr ating
Ġdes erves
st an
s cript
Ġg ef
ĠM aine
âĺ ħ
Ġp endant
ĠW onder
ent o
Ġfat igue
D ocument
h ang
20 5
ĠEm ily
é Ĵ
ĠTok yo
Ġexcell ence
Ġcont re
J o
Ġu pp
Ã©l Ã©
Ġc Ã
Ġlist ened
è® ¤
ĠIS O
st Ã
Ġbreat he
Ġch rom
ard ed
es p
Ġp ics
Ġdisapp ear
Ġviol ation
ĠAnal ytics
Ġgrand mother
Ġrece iver
Ġpropos als
Ġh iking
Ġaccur ately
Ġbr ace
ĠL if
ĠK rist
Ġdis put
? :
N AME
Ġcirc ulation
Ġp ione
Ġcell ular
j ekt
ĠIntellig ence
Ġliter ary
B T
amp a
æ Ĥ
ĠCh rome
Ġinst inct
Ġconsult ant
CO M
Ġtransform ed
ĠG ary
j pg
Ġtour ists
ĠF BI
ĠCar ib
\" \\
aut o
Ġsem ester
yl er
ĠO ri
Ġhe mp
Ġm Ã¡
Ġd w
N T
Ġb amb
Ġgod s
Ġloyal ty
Ġperson a
Ġb icy
uck ed
è¿Ļ æł·
ĠH ousing
Ġexist ed
nd e
Ġr anks
et en
ĠC ars
Ġch ick
Ġd ign
ĠL ang
ĠQu ant
uch t
ĠChair man
ue go
Ġmagn ific
ĠExt ra
ĠJ a
ĠStr ong
Ġste al
ĠEm ma
Ġdep uis
å¸ Ŀ
ĠT rend
Ġsurve illance
Ġspread ing
d t
Å Ł
Ġch ill
Ġpar l
11 7
ä¸Ń åĽ
Ġg le
uck er
Un fortunately
Ġout break
Ġsoc i
ĠC ertain
ĠCommun ication
Ġeval uated
Ġapart ments
Ġfat al
Ġsurv ived
Ġm unicipal
ĠSt ri
ĠRe quest
Ġtast es
\\ ]
! (
ĠR ow
Ġrel ie
b us
tw itter
âĢ º
Ġadvent ures
h alt
Ġpri est
L ab
ign ment
es a
um en
ĠSch olars
av ior
ĠBut ter
Ġm ism
val ues
ĠE P
ĠDu ke
Ġt urb
ĠAm y
ien ne
Ġn an
Ġstrugg led
S M
e ze
Ġy o
å· ¥
Ġcustom ize
² ³
Ġhe eft
Ġen velop
Ã© ho
Follow ing
ĠP ills
ĠMalays ia
ĠOper ations
Ġb ored
Ġpr iced
Ġemb edded
Ġappli ances
ĠF amil
åİ Ł
ĠMe anwhile
ĠTai wan
Ġcor ps
Ġclos ure
olut ely
ĠSw iss
olit an
Ġorient ation
ĠL GBT
k ar
ID S
T ree
UN D
ĠG ulf
Ġneed ing
or p
th an
- (
Ġsol ving
Ġnot able
ĠGr ay
Ġc ement
ĠExper t
atur a
ĠInt el
Ġl ig
Ġpresent ing
Ġbas ics
aint ed
Ġcert ific
Ġdo ve
Ġdeg li
LO G
åĩ ł
ĠOther wise
Ad v
claim ed
ut ers
Ġkey words
r ison
Ġvess els
j es
ĠPort land
Ġprint s
r itional
e ff
ie g
ĠN ash
Ġgener ating
az ines
Ġthe rapeutic
t emplate
ĠBl uetooth
Ġch lor
æ¸ ħ
Ġdesper ate
Ġv ou
ows hip
pos ed
ĠKenn edy
Ġp anc
ĠL ad
ex pl
ĠMc G
Ċ ĊĠĠĠĠĠĠĠĠĠĠĠĠ
ug gest
Ġaut re
Ġb ump
Ġval ued
c iÃ
Ġnou ve
Ġdist inction
Ġprev ents
Ġte ens
Ġp ond
s ure
Ġdomin ant
Ġimpl ies
ĠMississ ippi
åĮ ĸ
Ġwhis pered
Ġmind set
Ġcon vention
Ġlif ting
T ask
ĠNever theless
Ġz ones
ĠAl aska
ur able
äº Ķ
ĠBar cel
ĠC rim
ĠY e
iff erent
ron es
Ġs ail
Ġform ing
Ġapplic ants
ĠUnivers al
Ġjak o
ĠR y
Ġpr Ã©c
Ġbit ter
ĠV el
Ġattend ance
B es
Ġrest oration
Ġstat o
9 78
Ġme er
Ġjud ges
Ġmet er
m ac
Ġman uscript
Ġfoot age
Ġcontroll ing
oun cing
Ġre ass
ĠC ole
Ġalgorith ms
Ġcont am
è¿Ļ äºĽ
in ite
ĠV ision
$ (
Ġch arts
Ġchamp ionship
Ġ ell
Ġtherm al
ĠRober ts
ian e
16 5
Ġinject ion
Ġcollabor ative
S ettings
ĠW er
Ġpart ially
ĠQuest ion
ĠR ic
Ġindepend ently
ĠG ot
f are
st orm
Ġs op
Ġobtain ing
Ġvend or
Ġann i
Ġabsor b
Ġmax imize
ĠCh amber
Ġdiagn ostic
ĠV ancouver
ĠT an
ment ation
r ise
Ġw ax
ient es
Ġmon ster
R Y
Ġtouch ing
at y
Ġpip eline
Ġth reshold
åı ĺ
Ã¥ n
ck er
Ġfirm ly
ĠP red
ari ans
æī į
Ġb inary
Ġdecl ined
ard e
et ics
olog ic
ĠEn c
ĠB ot
Ġdr unk
ĠD ak
âĢĶ \"
M iss
ĠH ab
Ġsix th
i ens
Ġj ar
ne a
ĠYO UR
Ġsu iv
ĠSt ories
Ġhorm one
Ġg rief
Ġbe ars
Ġbrief ly
no ÅĽci
ĠOr leans
K S
DA Y
v d
Ġelev ated
ĠAct ually
Ġclean er
ĠCl imate
ĠNY C
14 4
Ġcondition ing
Ġsh ar
Ġkick ed
h icle
è Ĵ
13 3
Ġla zy
ĠSa udi
Ġtast y
ĠWhats App
ad al
Ġher bs
Res earch
D U
Ġsh ades
em Ã¡s
Ġsens ors
Ġth y
å§ ĭ
av ailable
ĠTechn ologies
iv el
Em pty
isc her
ĠM un
ĠH i
Ġcar go
Ġkind a
D em
pr im
st ru
Me anwhile
G P
ard i
ĠAl ice
ĠK ay
Ġcir cles
Ġafter wards
Ġown s
Ġfr ight
ĠT ut
Ġtom ato
Ġrot ation
ĠW oman
ĠJenn ifer
B ro
ĠJava Script
Ġsh ore
Ġvisit or
Ġv amp
Ġsusp ended
u ity
Ġgl uten
Ġdisapp eared
Ġra b
Ġste ep
Ġlight ly
Ġaest hetic
ĠP ython
Ġreal iz
Ġclean ed
P or
Ġadjust able
E lect
Ġa k
ĠY an
Ġl lev
Ġreason ably
Ġbe aches
Ġsurve ys
ĠL ind
L ive
te in
Ġad op
ĠRet rie
ĠMuslim s
æľ º
ik er
Ġdos es
ĠM atch
Ġover look
az er
Ġc erc
k ow
Ġj azz
Ġdelay ed
ĠBr ight
Ġch rist
Ġinv is
Ġcomb ines
Ġhab e
Ġdist ant
Ġim aging
ĠF ine
ust ers
Ġun h
-- >
Ġanalys es
ank a
ot ation
. ]
d isc
amm ar
ord e
Ġde ployment
Ġeduc ated
ĠJust in
Ġrecruit ment
ĠRuss ell
Ġnurs es
å Ķ
in fect
d ates
Ġr ally
Ġa j
ic ion
He ader
Ġj son
E ffect
t u
Ġch ron
ĠJ ahr
sc ope
Ġseg ments
Com merce
åħ µ
Me et
Ġur ge
l at
ĠP f
Ġvit amins
Ġh i
Ġbas es
Ġdiet ary
ert a
ff e
Ġjournal ist
åĲ Ī
b ild
Ġpros pective
r ze
Th read
Ġgluc ose
oc hem
<< .
ab ad
Ġfe as
ĠS ettings
Ġpartners hips
ĠIs a
Rec ord
ĠSt ars
Ġcon oc
arn ess
l ar
Ġty m
Ġmolec ular
Ġdelet ed
ĠK am
ĠS orry
Ġthr illed
ĠTr uth
Ġbrow se
Ġke ine
B ody
c ustom
add ress
Ġcapt ain
ie urs
Ġstrugg les
Ġh ike
ck en
Ġtw in
çļĦ ä
Col lection
Ġspons ored
by e
ĠSy ria
y les
ĠSw itzerland
H C
ĠI ch
ak y
Ġrep et
che m
il ib
åľ º
op ed
Ġassoci ations
h ma
Ġrec overed
K now
ĠSus an
Ġwarm th
Ġout line
Ġl Ãł
ĠCe lebr
ĠC leveland
St op
connect ed
i Äħ
Ġtact ics
s ave
Ġk omm
Ġseason al
Ġhe el
Ġgra ve
Ġstream s
Ġche ek
it as
Ġdeal t
Sp ace
Ġlib ert
IG N
Ġhydro gen
Ġret ro
Ġcor ruption
Ġsp a
ĠE val
b ind
Ġpray ers
Ġcloud s
ĠT ruck
com ed
us amm
Ġcomp aring
ĠB ah
17 8
ĠL iver
Ġsitu ated
cl ock
Ġbas ement
ĠHol iday
Ġan th
Ġdis abilities
ĠHealth care
im ated
ĠN ep
ĠB ond
es c
AS H
ĠG L
r ams
å ©
ĠAl ber
ĠTh ai
Ġcomm od
an ut
ĠT ower
bre aking
Ġfra gr
Ġexp end
Ġj ug
k now
Ġshow case
Ġconf using
Ġdist ricts
ĠCy ber
Ġdrag on
ch air
Ġprivile ge
Ġcount ing
ĠG un
Ġmax im
Ġb orders
ĠSw itch
Ġass ists
ĠT her
ĠIn iti
14 5
H ash
in ance
Ġdescrib ing
Ġcha os
15 5
Ġbuck et
ĠH O
s v
ĠVol ume
ic ut
ĠGr ade
Ġtrans it
Ġsl ides
Ġcoll apse
Ġfif ty
ĠF lex
Ġparticip ant
Ġdu pl
Ġdisp ute
Ġur gent
Ġchem istry
Ġto kens
Ġz ap
ç» ĵ
as is
ĠM os
ur red
Tr ack
ĠHer itage
Ġconcent rate
Ġly rics
Ġa ce
ĠH alf
ĠOver all
ĠAr thur
ĠA x
ont in
Ġp ound
Ġpl ac
Ġfol k
Ġnon etheless
Ġunderstand s
Ġnation wide
Ġc yl
ass ador
ĠLinked In
Ġst ressed
ĠO t
OM E
Ġrep ay
in ars
Ġroll s
ĠJ os
Ġhas h
Th ursday
ĠF Ã
ne red
l it
T ry
Ġobs c
ĠS L
ĠBrook lyn
Ġn iche
Ġeas tern
ĠFa ith
ch te
Ġatt ain
We bsite
ĠT es
Ġincorpor ated
Ġamen ities
Ġback pack
Ġt ens
n ote
oubt edly
Ġun pre
Ġdial og
A f
Ġadapt ed
Ġsumm ar
Ġm ul
ĠA aron
Ġindivid ually
ro se
Ġrecycl ing
Ġc rap
Ġlean ed
T ok
Ġp ension
und e
Ġphys icians
Ġinter val
Ġsen za
neh men
ĠLe ft
N orth
ĠL ag
Ġaccording ly
ol t
ograph ical
Ġp ork
al ph
Ġtra g
Ġmat ched
c ert
Ġnew er
AT ED
Ġsynt hetic
B on
Ġsl im
Pl ayer
Ġk iller
st ration
Ġqu eries
a ired
on ce
P od
Ġb ru
Ġbub ble
S end
Ġm uss
Ġtra p
å ¢
ĠSp a
Ġvess el
Ġc oding
Ġu pt
Ġp unt
ĠSt adium
Ġmin erals
Ġsurprising ly
Ġoff line
Ġpract icing
n els
Ġcompl ain
Ġwa ar
urd y
Ġval ve
F alse
ĠH ind
ĠS oph
ĠI M
Ġwr ist
ain es
Ġfarm ing
Ġqu Ã©
ys ical
ĠP ublished
Ġbo il
oh yd
Ġtail ored
ĠB ring
b ecause
Ã¢ t
ĠĠĠĠĠĠĠĠ ĠĠĠĠ
cl osed
Ġlect ure
Ġu gly
Ġunder ground
Ġgr ill
ĠAg ent
Ġhab ÃŃa
Ã¤ tt
ĠB os
Ġw rest
out heast
Ġstat istical
n ah
ul u
ĠOpp ortun
Ġs ized
ĠF ix
B B
et ed
Ġfr idge
se g
ie le
Ġappro aching
Ġein f
Ġcon gr
Ġmed ian
Ġbl ast
Ġnov els
Ġthank ful
ir i
ĠAl bert
En joy
Ġover s
ĠBe yond
Ġadjust ments
:- )
ĠĠĠĠĠĠĠĠ ĠĠ
ik t
Ġev olved
ĠIde as
ĠF al
ĉĉ ĉ
ĠG ib
Ġprze z
N eed
p ng
Ġs ore
Ġm ia
Ġm eth
C ache
Ġspecial ty
Ġs aves
Ġb oo
Res pond
éĿ ŀ
o ons
r h
Ġnuc le
ĠP interest
umn i
Ġn our
ĠS ugar
ab lo
Ġcuis ine
ĠT ouch
Ġimag ined
Ċ ĊĠĠĠĠĠĠĠĠĠĠĠĠĠĠĠ
enn a
Ġal pha
ĠAd ams
Ġdest inations
ĠIs lands
ĠP ent
Ġindic ating
12 9
id ate
ĠMe chan
iz ione
Ġad here
olog ically
ol er
Ġfest iv
è¯ ¥
b ag
Ġpers pectives
ĠPri ze
ĠM Ã
Ġpr Ã
Ġgr ades
Ġdepart ure
Ġlist ings
Ġesc al
ĠK han
88 8
v s
ĠG ummies
Ġcirc ular
Ġtrav elling
Ġmet als
Ġcreat or
Ġm Ã©
ĠV ert
Ġhy g
* ,
ĠM osc
Ġconst itu
uc he
iz on
Ġjust ify
ĠZ one
ĠGrow th
æ ¢
F ore
ĠPal m
Ġsl ice
Ġd aughters
ve c
Ġprotocol s
m atch
t own
Ġopp onents
ĠReg ular
Sh ort
ik o
br and
h is
Ġb anned
ĠH omes
ĠG rey
ĠProgram s
Ġgl oves
u ent
ĠHawai i
ias m
ĠDis play
pat ient
bl er
as ive
g ust
ĠIn sp
Ġsp ine
Ġs ends
Ġdess ert
20 4
Sc ore
N G
Ġind ication
Ġequ ality
ĠSn ap
ĠU ntil
D om
al m
in to
per m
Ġs q
ĠJ ere
Ġl ined
ĠHigh way
ĠP H
æ° Ķ
$ $\\
f ive
g irl
m el
Ġh anno
Ġinv itation
Ġinter ventions
Ġtransl ate
Ġmulti pl
Ġb ÄĻd
Ġaccess ed
Ġveter ans
Ġtra its
Ġpu zzle
ĠFre edom
ĠCom merce
Ġdram atically
Ġcons pir
__ _
ĠGu y
Ġdepos its
Col lect
Ġlab our
Ġcor rupt
Ġass ure
ĠChristian ity
ro be
D im
Ġsim ulation
Ġsacr ific
Ġref resh
Ġm apping
Ġdress es
Ġbelong s
ĠJ ah
åĽł ä¸º
ount ered
ĠLe ader
ĠPro s
Ġcon na
g re
Ġhe ated
z k
Ġthe ft
Ġoccup ied
\" /
Ġrel atives
att ed
Ġpsych ology
Ġrep orter
ibl ical
Ġsens ation
Ġvoc Ãª
iv an
P RE
Ã¤ lt
Ġun iqu
comm un
Ġconsecut ive
S n
Ġsp raw
S un
ĠB rain
Ġadjust ment
Ġhigh way
ĠG aming
Ġk its
ip al
â ľ
ruct ions
ĠAl c
Ġc et
ĠA BC
pp e
Ä ±
ry ption
ĠpÅĻ ÃŃ
Ġmob il
Ã© v
ov al
pl ess
Ġgu ards
ĠG M
Ġcatch ing
br is
ĠPhot os
ĠR ules
Ġquant um
ĠSome one
auc oup
ĠLet ter
Ġded ication
Ġprogram mes
ĠCon vention
Ġco ating
åĪ Ļ
Ġsn ack
Ġoccas ional
opp ers
ab ases
int endo
ĠBarcel ona
ĠT on
anc ies
Ġencourag es
ĠMens chen
Ġe ines
Ġes pecial
Ġterm in
Ġfert il
P arent
Ġne u
Ġcous in
H as
Ġver ification
Ġenc ountered
Ġreal m
ĠP E
Ġconduct ing
L o
ĠB apt
C ross
ĠCons erv
Ġf ung
Ġd airy
ĠK inder
ĠP u
ĠMar ie
ĠMon te
ĠP ul
c over
ĠR ating
âĢĶâĢĶâĢĶâĢĶ âĢĶâĢĶâĢĶâĢĶ
Equ als
ĠPhot ography
C r
ĠM illion
) \\
ist le
su per
ric ane
ç Ĭ
Ġstrength s
N ov
ĠO ften
Ġcons ensus
Ġsubsequ ently
Ġpubl isher
ĠC ape
12 4
Ġhome owners
ĠEx ception
ĠProf ile
Ġchol esterol
Ġc ried
Ġcomprom ise
S QL
c ourse
he ro
Ġca res
Ġsc iences
iz i
Ġr uled
Ġsan it
Eng ine
Ġknowledge able
Ġhousehold s
Ġm ater
Ġpromot ions
ig keit
Ġneigh bour
ĠM T
h um
id ges
all ing
j Ãł
Ġw ages
ĠC F
ĠU l
Ph il
ĠPhys ical
Ġword t
Hel p
Ġp neum
Ġmod est
ĠAv oid
ĠPrin cess
Ġbund le
ie u
Ġin equ
ĠChrist opher
Ġcy cles
N a
Ġcharm ing
Ġf rown
Ġover d
Ġnever theless
oc yt
Ġjud g
Ġc av
Ġcor poration
li ver
Ġtal ents
åı į
Ġanaly zed
ĠAd just
Ġrac ism
es ity
Ġfre el
Ġk r
ĠJun ior
Ġde emed
ra h
Ġmyster ious
A I
Ġjump ing
Ġm ismo
Ġunem ployment
Ġs ia
Ġw ag
oo g
Ġpill ow
Ġp ause
Ġkid ney
atin um
Ġindic ators
ĠM yst
ĠK o
Ġcharacter istic
pro du
f ocus
f n
Ġhas s
ĠCh arg
MA X
Ġcontact ed
Ut il
ĠPol and
Ġconsider ably
ĠP ool
Ġas semb
Ġorgan izing
Ġsen iors
Ġatt raction
Ġstri kes
Ġtransl ated
Ġd read
st ed
ĠT ob
ĠF ried
Ġb ikes
Ġphr ases
ĠT aking
' ],
ows ki
ĠMO RE
unt ed
Ġcru el
Ġdraw s
Ġvin yl
s plit
ĠN FT
ĠChe l
ĠKnow ledge
ist en
or f
12 6
Ġw ines
ex per
S unday
ä» ¶
13 1
E lim
ĠTh ought
ĠCent ury
Ġrefres hing
Ġsull a
Ad vert
Ġdistinct ive
ene z
Ġspir its
Ġfr ustration
ĠR ate
Ġrem ot
Ġl ymph
ott a
æľ ¨
ĠE SP
Ġvir uses
Ġadv ances
Ġt ener
ke ep
Av ailable
it ations
ĠR V
) }
Ġpri zes
Every one
Ġstrict ly
alt a
Ġcontin ually
Ġwind s
Ġcast le
Ġn ails
ĠRel ated
Ġfort une
Ġbless ing
Ġpart ly
Ġgl anced
ĠS pect
ĠAl an
B u
ub a
ĠA ren
ul ly
Ġcross ing
Ġp ear
ym bol
ĠJer usalem
ĠSche dule
17 7
ĠPre vention
ĠP os
Ġshift ed
h attan
St ay
ab l
Ġtum or
Ġw ished
ä»ĸ çļĦ
Ġeduc ate
Ġl um
row ave
Ġanal yt
Ġpl aint
ĠW W
Ġacc red
ĠE gg
Ġeuro s
L ead
n n
m ill
Ġshow c
ĠOffic ial
d iction
de lete
Ġint ensive
it ol
Ġjournal ists
T uesday
Ġsust ained
am as
ĠI RS
Ġst itch
h ash
Ġwas hed
ĠAny one
jac ent
ens ively
tain ing
Ġsm iling
Ġg aps
Ġund ers
av an
Ġtrop ical
e ous
Ġch uck
Ġtri ple
ĠBarb ara
Ġconnect ivity
ur ring
Ġvary ing
Ġexp ed
ĠTr ading
ut ils
Ġto b
ĠP ok
de bug
u ar
ĠP ic
ĠC ategory
Ġret ention
å¸ ĥ
i w
Ġmodel ing
5 50
ĠCar ter
ĠÃ ¥
Ġn em
Ġcontrovers ial
b eta
Ġpadd ing
\"> </
Ġs f
W ednesday
Ġinflu ences
ĠR ent
Ġw sz
16 8
Ġte cn
Ġtun nel
Ġb ang
N ames
un ter
Ġassess ed
ĠM ilitary
ĠR and
ĠaÃ± o
Ġstruct ured
ĠCP U
Ġal iment
Ġper d
Ġtestim ony
Ġback ing
ĠS ter
anc ers
Ġcreat ure
ĠM ason
Ġhom emade
f ic
ĠInt roduction
Ġlaunch ing
2 25
Ġon ions
it ated
Ġab b
ĠSt orm
Y ear
Ġpun ishment
Ġup s
Ġanx ious
ĠThom pson
é Ń
Art icle
Ġsun light
s burgh
Men u
Ġcust ody
ab ilit
ĠEx cel
ĠInter view
vert ed
Contin ue
S ep
ĠS N
`` `
Ġconsum ing
ĠMaterial s
Ġair line
Ġgu ilt
Ġconst ru
m are
Ġchalleng ed
orient ed
we ise
O ld
Ġcal cium
rol ogy
in em
rypt o
ĠD elta
D D
Ġlog ging
ĠB aker
Ġpl asma
Ġhes itate
Ġconflic ts
Ġrenew able
ig ger
Ġfor cing
Ġconsist ing
ĠB eth
Ġdon n
Ġcont empl
ĠTrans fer
Ġwel comed
Ġintrodu cing
Ġcos Ã¬
So ft
Ġback yard
Ġblock ing
Ġsu e
Ġavoid ed
ĠD rop
iss en
ĠFA Q
2 60
ĠCarib bean
Ġg esch
Ġne arest
sp ot
> ();
Ġgar ant
Ġjus qu
ĠÃ ĸ
Ġtrad ers
ĠI o
ĠF C
Ġtra ged
Ġroll er
Ġv ed
ced es
Ġinter ven
Ġrespond ing
Ġh ockey
ĠSupp ly
Ġs ag
ac cept
ar at
Ġanc ora
ĠK ir
Pres ident
bl ack
å® ĺ
æ´ »
Ġmen os
?? ??
ra ham
ĠMel bourne
Ġcan cell
Ġlong est
Get ting
Ġg erm
Ġdecl are
Ġf itted
ĠH ours
ĠPal ace
ĠV ous
ĠJ uan
Ġant ioxid
m ult
reb be
Ġbreak down
ĠL ength
Ġsh y
Ġrecip ient
6 50
Ġreported ly
Ġchair man
Ġconf erences
è§ ī
pp o
Ġshel ves
ĠE ither
reg ular
Read er
ĠW ir
M al
ĠH us
Ġus eless
å ¨
Ġs owie
Ġh ace
Ġorganiz ational
ĠGra ham
t xt
Ġenter prises
Ġle isure
aps ed
å° ĳ
Ġinc idents
ĠCh ocolate
åį ´
Ġus ername
Ġra pe
ij ke
Ġdr um
P rom
use ment
ĠCons umer
Ġnecess ity
Ġot ros
Ġde ce
Ġquest a
Ġgenu inely
ĠP ages
Ġbo ats
ÄĽ t
l ove
ĠN ous
Ġl aughter
Ġis lands
eral d
Ġge gen
abe i
Ġinev itable
Ġoptim ize
Ġdemocr atic
D own
ud ad
ic hes
uff y
Ġpo le
Ġelectron ics
)) )
T alk
H ar
ĠUs ually
l ocation
n c
Ġlik elihood
= âĢĿ
Ġeconom ics
V ector
Ġfa Ã§
AC H
overn ment
Ġhon ored
Ġprog ression
c ache
L im
ed ed
ĠC er
ĠSh an
aut res
ĠH at
( +
lic ht
Connect ion
F inal
ĠUlt ra
ĠUp dated
che t
ĠAd ult
Ġtend ency
Ġre nowned
Ġa z
ĠAr c
Ġz oom
ient os
ĠRegist ration
Ġy og
ĠR ule
Ġperfect ion
ĠF it
Ġsecret ary
ĠN ort
Ġper t
ple ments
is Ã©
uel a
Ġreb uild
ĠC op
xt ures
Ġsel bst
Ġgr ams
ww w
Beaut iful
ĠE ld
Ġchap ters
M o
Ġinstruct or
Ġpack s
Ġconsum ed
Ġpack ing
ĠF ly
C ur
Ġcou p
ĠMad ison
ĠAd obe
ĠG ordon
Ġimpact ed
ĠP ump
Ġvo ir
çĽ ®
cipl inary
ĠN ag
è® ¸
ĠFe el
Ġal go
S ION
ire ments
Ġpres cribed
è® °
ĠCl ose
Ġswitch ing
Ġmach inery
B ooks
Ġl l
ĠRep ly
Ġtravel ed
¾ ¾
zen ie
Ġneg lig
Ġcu enta
ĠCam era
Ġsimpl er
ĠPod cast
Ġsmooth ly
De velop
ĠL iz
Ġcharacter ized
mind ed
ĠdiffÃ© rent
ĠL ex
Ġd amp
Ġanal og
m ans
Ġdead ly
Ġhung er
R uss
W ait
Ġth igh
cons cious
Ġp iv
Ġres erves
anc ell
Ġval ley
act ly
Ġnot ing
Ġrapp ort
ĠR ice
Ġwel coming
Ġmotor cycle
Ġsatisf ying
Ġtr ay
Ġf ires
st ud
Ġc ents
Ġpre lim
æľ Ł
* .
ement e
Ġmult ip
Ġmac ro
Ġclass ification
f its
ĠIn v
owa Äĩ
Ġbr ack
Ġch in
Ġappoint ments
Ġlegend ary
ĠK id
Ġpod er
Ġ ig
l iv
Ġque ue
ili ation
Ġb arn
__ (
ĠG ov
ĠWik ipedia
ĠG host
Pro s
ke eping
uer to
Ġpol ar
Ġst yl
Ġmuch o
Ġjoint s
ĠÃ© p
Ġsent ences
Ġmit ig
Ġdon ate
Ġle ar
Ġsn acks
ach ment
l ab
icht ig
ĊĠĠĠĠ ĊĠĠĠ
Ã¡ d
Ġsus cept
çķ Į
Ġpursu ing
S ession
lic t
\") );
Ġl ugar
ĠTe acher
g os
Ġo xid
Ġfin ances
Ġse wing
ĠT rip
qu ier
Ġcl ips
% ),
) ).
ĠP el
Ġra ises
ubl in
is i
s d
ĠS ri
Ġsince re
40 1
Ex ecut
ĠRob in
Ġlack ing
b one
Ġcateg or
hand le
Ġun ited
f an
Ġf og
Ġat he
Ġcan ada
ĠS ER
Ġsell s
ra is
Ġam bit
Ġdou b
ĠBirth day
r ary
ul ative
Ġsp ite
ĠInd ependent
med ia
Ġfor b
em pre
Ġconsequ ence
Ġexecut ives
ha us
Ġche z
åĲ §
åĪ «
Ġprim er
dev ice
Ġfr ank
Ġalbum s
f ar
des cription
d og
Ġb aked
ĠA F
ĠM ode
Ġi hr
Ġpo i
com pass
Ġrespect ed
Ġr ides
Ġp on
Ġth rive
Ġle i
ri um
X T
RE D
Ġpot ato
at able
zia ÅĤ
ĠdÃ© jÃł
ĠClean ing
Ġalt ogether
Ġad vers
åĳ ¨
ĠT un
Ġactiv ated
Ġex empl
å¸ ¦
ĠSumm it
Ġn ons
ĠN atur
Ġl ane
ĠIndones ia
27 0
ĠD river
es pecially
Ġener get
ĠF urn
Ġfon ction
I ts
t otal
ĠS M
Ġre ck
Ġdur ability
w oman
Ġnames pace
Ġmetabol ism
on z
Ġmerch andise
Ġl obby
ĠB ec
Ġte x
Ġeat en
c amp
T ags
j amin
ä¸į æĺ¯
ĠW a
Ġmag azines
ĠN av
Ġvar ies
erc ise
Ġpromot ed
Ġ ents
Ġp ussy
Ġdocument ed
Ġtiss ues
F ire
ĠCo al
ij ing
ĠTransport ation
Ġsist ema
Ġinv asion
Ġe co
s ers
Ġmess aging
Ġang el
Euro pe
Ġs oda
ĠOrgan ic
Ġl enders
C ost
Ġoccur ring
Ġfor ums
Ġprotect s
Ġinc ons
Re qu
anc ia
Ġreven ues
ack ed
Ġqu oted
Ġface book
I Z
os ures
Ġthick ness
Ġsell ers
P ut
ĠR ole
Ġattach ment
Ġdist ress
ĠMor ning
ĠCond ition
ot ypes
ERR OR
Ġinvestig ated
ra ul
ĠNe vada
Ġrespons ive
ĠCit iz
Ġob jet
è® º
Ġd ag
atter ing
Ġbra ve
Ġcl ue
s qu
ĠP ap
13 2
Ġbe aucoup
Sh op
f ox
Ġb ard
J son
v ideo
Ġmembr ane
Ġst ating
Ġk ont
Ġbrow sing
est ed
ss en
Ġre lev
Ġeth ics
ĠIn side
ĠAssess ment
m ine
or z
Ġpar se
arg in
at ore
Ġby te
p her
Ġgrat itude
Or ig
Ġcounter part
Ġl ender
d ot
Ġ Ï
Ġbo oth
Ġdefend ant
Ġper chÃ©
ĠArt icles
t ask
Ġbre ach
Ġsk irt
æĮ ģ
Ġsac red
Ġvi able
ĠBud get
ĠP s
Ġtra ins
ĠF ell
Ġpar ams
dis play
Ġour s
ĠCh art
ier te
P rim
Ġcamp s
Ġh ilar
ĠF R
ell t
æĮ ĩ
ĠHe aven
arl a
ĠPay ment
Ġdeal ers
Ġdes criptions
d ie
ĠN elson
Ġhe ter
Ġsh ifting
Ġlot tery
Ġsol ved
åĳ ĺ
Ġhe els
Ġl am
\\] ](#
r z
ro ts
Ġshort s
D ist
Ġcurios ity
anc a
R ober
w ritten
Ġf ame
cl ip
Ġdiv ide
H ub
or ig
ffic ial
ĠEp isode
Ġaff irm
math cal
e very
ar ium
ĠH app
ĠR av
Ġpharm aceutical
Ġrac ist
Ġb ail
Ġspec ially
Ġp iss
Ġdil ig
ĠLaw rence
Inter face
ick y
ĠC I
appropri ate
ĠD ental
ĠRes ult
[ :
ĠSen ator
Ġu w
aj o
Ġout lets
Ġt anks
Ġd od
acc ount
w ort
Ġor che
ä» ¤
ri ors
r ats
Ġb ind
ĠO tt
urs or
Ġm amm
T I
ĠArch ives
äº §
Ġsp acious
æľ Ľ
our t
k el
Ġh ips
Ġprof es
Ġer g
Ġjam ais
Intern ational
Ġa pt
15 2
f red
Ġwor ries
14 9
Ġinternation ally
ĠIss ue
ster dam
Ġant es
ĠUkrain ian
Ġfle w
C oll
Ġd b
G C
m id
ul o
N ice
Ġrel uct
Ġattract ions
Ag ain
N othing
Ġloc als
ar roll
bre w
Ġh ated
avor ite
âĢľ ,
f u
Ġabs ent
roll ing
Ġdis comfort
ĠRec overy
S ure
- ,
ĠCh oice
ĠCl ar
Ġpoor ly
w estern
ab i
Ġacknowled ged
ĠG ay
ĠPlay ers
KE Y
ĠW es
Ġenthus iasm
l le
ver b
ĠW right
Ġachieve ments
p rom
A bs
ĠLouis iana
Ġj unk
w atch
Ġwealth y
Ġfloor ing
ass y
ä» Ĭ
Ġsp am
rane an
re port
ĠD R
Ġobst acles
Ġsh ifts
ĠStat ement
Un ited
Ġshe er
å Ħ¿
zz o
Ġpot ent
Ġcool er
Ġtod as
Ã¡ nd
Ġm ins
Ġbankrupt cy
ĠP un
ĠP and
Ġf art
Over all
Ġlie u
Ġheb ben
Ġdec ides
ĠL ower
rict ion
å® Į
b efore
ĠM aj
ĠCoun sel
Ġadvis or
R ow
Ġp est
Ġsear ches
per or
ĠSe ven
Ġfor ty
Ġeditor ial
wn ie
Ġterror ist
ĠIns pect
Ġl ending
ĠF u
um per
28 0
ĠQue ens
Ġdemand ed
omm end
Ġpu zz
Ġgame play
az u
ed ar
ĠOpt im
p df
ĠH em
Ġpromot es
Ġc rops
ang ular
Ġrou lette
ry lic
Ġhold ers
ĠV R
Ġfortun ate
ĠE L
ĠDec or
Ġst ew
Ġathlet ic
Ġman ages
old ing
Ġver ified
Ġintent ions
k w
Qu ick
ĠS old
ĠConnect icut
ĠFeder ation
ĠMas ters
te chn
Ġje alous
Ġast ron
Ġst icks
ĠPrim ary
end ent
D ir
Ġs ync
Res ults
Ġment ally
ĠV oice
ĠS pecific
ĠF itness
Ġsurround ings
F amily
i endo
Ġins ulin
o ks
Ġappear ing
Ġri en
Ġaltern ate
Ġremot ely
Ġwitness ed
ĠM ig
Ġexam s
unn els
Ġtun ed
Ġnegoti ations
R ange
Ġan onymous
d ess
Ġg inger
ount ain
Ġadministr ator
Ġback s
Ġcomb inations
x ml
e lement
st ation
ener y
ob i
å¸ Ī
Ġabund ance
Ġt attoo
Ġcom ent
ĠG em
ĠSk ills
Ġimmig rants
ĠP ure
ver ter
} (
ott age
ĠS it
ĠCert ificate
Ġhoriz ontal
Ġrhyth m
æŃ ¦
O wn
il let
Ġdeb ug
ĠApplic ations
ĠR S
Ġtr at
A GE
Ġter rain
ĠBalt imore
Config uration
ĠSe an
sh aped
r r
y ll
AT O
P DF
Ġnam ely
ç ĸ
Ġnon profit
The ir
reg ister
Ġher s
Ġactiv ate
Ġgam ers
comm and
F un
s pec
Ġro pe
im edia
F ood
ä¸ Ķ
ĠPack age
Par ams
Ġplant ed
m ith
Ġlux urious
E t
ĠB Ã
13 9
ĠRog er
est amp
ill as
Ġautom otive
Ġsport ing
Ġse aled
Ġfree ze
Ġhead quarters
ĠC ards
Ġund oubtedly
ĠWe ather
ĠPark er
Ġpret end
St ack
h ren
S uch
Ġhero es
Cons ider
Ġsubscrib ers
è¨ Ģ
ĠOk ay
Person al
ĠH az
th ird
all ic
Inst ead
sequ ently
> .
èĢ ģ
C ert
Ġw iÄĻ
Ġd ated
ĠM ental
Ġware house
ĠB ishop
Ġret ire
Ġpay day
n ica
ĠN in
ĠR ES
O pt
ĠTh or
on ge
Ġchamp ions
Ġt in
æ ļ
ĠOff er
ar an
Ġl enses
We ek
ĠPat ri
mon ary
Ġenl arg
G M
ĠQu ote
at ivo
åı ¤
Ġneed le
Ġel astic
Ġfrustr ating
Te am
Ġrelax ation
Ġlength y
Ã¨ ne
ig g
ĠEnt re
ĠKen ya
Ġcorrel ation
Ġaff air
ĠS ame
Ġinc on
ced ented
S chool
IN S
ĠV ideos
ĠVit amin
ĠA V
og ram
ĠS EC
Ġalg un
Ġinvis ible
Ġbatt les
Ġspons or
Ġ Ä
co very
d ra
ĠMem ory
t ry
Ġmethod ology
ĠRep orts
Ġcoll ar
Ġred es
Ġpat ri
Ġrem odel
ro b
Ġprot agon
Ġfif teen
op ter
Ġven ues
ä¿ Ŀ
Ġbe k
ä¸į ä
Ġexpress ions
Ġsw ift
Ġimm ers
- $
de gree
ĠHope fully
Ġtop s
ĠSte ph
Ġra ge
P AR
ĠZ ero
ĠMosc ow
Ġetern al
Ġf oi
Ġto dd
Ġun cle
Ġt iles
og o
ĠTest ing
Ġvine gar
ail ure
ĠMichel le
ĠS R
Ġc ough
ow ych
Ġhe d
ung le
ĠR io
ĠRet ail
Ġtrabaj o
ð Ŀ
f our
ĠD B
ĠT odd
ID E
Ġfrustr ated
Ġo gni
Ġf uer
ue z
é¢ Ĩ
! .
Ġpe el
ic ting
Ġmeant ime
ĠF irm
om on
Ġax is
A uth
Ġw en
ĠI g
at ique
uff icient
3 30
Ġconfig ure
ÄĻ p
Ġpun to
Ġtouch down
Ġassum ption
ĠProt ect
Ġansw ering
ĠHealth y
p f
Ġtravel s
M obile
ĠF ixed
ier on
ĠStand ards
Ġjed n
äºĨ ä¸Ģ
Ġthread s
pro gram
ĠSol id
on ial
Ġreward ing
z ek
umb ling
å¤ «
ĠR idge
Ġin aug
Ġbe im
reng th
ĠOut door
ĠMed ium
Ġsh aft
e a
iment al
Ġunf air
Ġassign ments
em et
s pring
Ġwe ights
Ġref eren
Ġmin ist
ĠC AN
ĠT ik
Ġes o
Ġbi ology
ç» Ł
v id
Ġg rie
C I
Ġam p
last ing
Ġconsider ations
Ġw ip
ĠLo an
Ġl u
Ref erence
è¿Ļ ä
Ġve gg
Ġoh ne
A w
ĠCost a
Ġcard iovascular
Dev ice
ĠP D
Ġw olf
Ġregul ated
Ġpued en
Ġalign ment
Ġco h
umb ai
ĠToy ota
Ġcon gress
N EW
ie val
pe ople
pu Ã©s
ĠMar vel
bor ne
Ġconcent rations
ĠEconom ics
Ġproceed ings
il ia
Ġrest ored
ch annel
Ġes e
Ġfoot print
7 20
Ġmiss ions
Y et
Ġf Ã¶
Ġm atern
ĠCare er
exp ensive
Ġdef ines
Ġtow el
pa id
og ene
Ġmechan ics
Ġconstra ints
M ad
l ower
ĠC el
t k
äº ļ
ĠP le
ĠInter ior
ĠScott ish
res so
as ury
em bre
Ġg room
Ġadm ire
ent re
ĠAl b
M ag
ore m
Ġst ub
ash a
Ġend orse
Ġms g
^ ^
Ġpo et
Ġapp ar
Ġih re
ĠMan ual
ĠWar ren
Ġmid st
Ġtra ct
éĩ ı
ĠRob inson
ĠH end
â Ķ
ĠPer iod
Ġpass ive
Ġu b
G I
Ġgl ue
Ġterr ific
us age
Ġand eren
Ġkey word
With out
Ġm atur
Ġstr anger
n an
ats on
Ġperform s
Ġs odium
Ġsl ower
Ġpu Ã
nt en
Ġble eding
i ol
Ġde bris
ob ic
Ġtro is
b ud
t ml
na ire
Ġare na
ĠP oll
Ġad jacent
Child ren
are l
ra ble
Ġtravel ers
f y
ven ir
ĠC arm
Ġby tes
Ġdis charge
Ġrele asing
æĢ »
å» º
Ġd ick
ad min
sh ape
Ġpractition ers
pp y
Ġunw anted
Ġt ones
Ġg Ã©nÃ©
Ġout look
oot er
ipp ers
Le ft
O B
Ġe ch
Ġse ating
Ġinvestig ations
Ġfarm s
A V
att r
ann on
Ġw ool
Ġcon clude
ast ics
G T
Ġv Ã©
Ġline up
G ive
Ġg anz
Ġcomb ining
Ġout lined
F our
M ail
ate urs
Ġcre ep
Ġreview ing
l iter
ĠMan hattan
Ġdraw ings
y cz
ĠS ens
de velop
reg ist
Ġcabin ets
m ers
CO VID
ĠA id
f ill
ac ias
at isf
Ġland l
Ġste ering
åŃ Ĺ
ĠCry stal
æ ħ
Ġanalyst s
m ot
Ġcred entials
gr id
Ġcycl ing
Ġw Ã
IN D
Ġs atur
ling ton
Ġâ Ī
cm d
ri eb
Ġpartic ul
ĠPar am
D en
t ree
add le
Ġc amb
Ġfabric s
edd ings
ĠCamp bell
he imer
Ġp c
c ient
ill on
} .
Ġind ul
ul as
th read
åħ ĭ
Ġcha que
Ġdefe ated
is ement
u per
Ġemer ge
m ia
opp y
Ġplus ieurs
Ġcrit ics
Ġsand wich
ĠU P
Ġd ull
Ġl ing
â Ĩ
Ġpe oples
Ġdevelop s
pro file
ĠAth let
Ġsh aking
ĠM ann
L ock
Ġst arter
OR K
ĠEm b
Ġscient ist
Act ive
Ġpupp y
ac ies
ĠTH IS
pl ane
ĠJim my
b ottom
ac ion
Ġpromot ional
Ġsoc ks
t im
â Ļ
14 1
ne g
Ġcry st
ĠBoy s
Ġhom osex
ĠW ash
ĠCra ig
ĠC ris
ĠCh o
Ġrem arks
Ġcount ies
Am ong
Ġsi empre
Ġdec is
Ġcounsel ing
i ples
ĠAz ure
Ġle v
ON G
ĠW ard
Ġt amb
Ġir res
Ġrem edy
Ġsens es
ĠD M
ĠBudd ha
Ġhapp ily
Ġtrick y
Ġinhab it
Ġun re
Ã¥ ng
Ġh alt
Ġdies em
Ġfat to
ĠRetrie ved
z ip
Ã¶ s
Ġded uct
-------- ----
Ġupd ating
ĠRem ote
ĠCamp us
ic z
Ġdemonstr ates
Ġdon ated
Ð¸ Ð
ĠCh ase
Ġpar liament
Ġl ÃŃ
ĠE ff
Ġsal mon
Ġstress ful
ĠCh ain
ĠI an
ator i
Ġdisc retion
ĠCom par
Ġtob acco
ĠCon vers
ĠHig her
Ġgl oss
Ġs ic
Ġn ada
Ġst adium
Ġdeploy ed
Ġemotion ally
Ġgrad uation
off set
Ġtr am
Ġviol ations
Ġvill ages
éĺ ¿
ĠClin ic
Ġconj unction
ym e
Ġarch ive
B i
ph i
if iable
Ġsh adows
Ġreason ing
W N
In vest
Ġdef ence
Ġpr one
Ġprot ests
Ġflow ing
ĠPlan et
Ġfl ame
Ġincent ives
ĠLeg isl
Ġl ining
Ġdel ays
ĠSte wart
W idget
Ġc ope
af ood
Ġgl ow
Ġv ita
ĠAdd ed
Ġover head
Ġunder graduate
Ġconnect s
Ġser um
ing ing
Ġbre w
Ġbackground s
ĠFac ulty
ĠColl ins
ĠThe ory
Ġr ushed
é Ł
ĠWay ne
Ġweek ends
f iles
ost o
Ġext ensions
Ġcor rection
ĠB achelor
az y
ç ¡
cent ury
Ġinvestig ating
an ium
ish a
Ċĉ Ċ
ĠC ake
ĠWhe el
Bel ow
em ics
Ġs ÃŃ
ri que
iz io
io let
ĠH orn
13 4
Ġs igh
Ġh ttp
Ġsp otted
Ġcon clusions
ĠDou glas
ĠHe y
em b
ĠSU V
re ational
Ġham mer
ĠDisc over
ĠPolit ical
çŁ¥ éģĵ
Ġgrav ity
Ġy arn
Ġdeterm in
æĢ Ŀ
Ġtheoret ical
s ql
ĠTurk ish
Ġb acon
Ġd ude
Ġinquir y
et to
ĠS ession
ĠFl at
Ġd io
ĠD un
Ġim plements
Ġdr ill
Ġquick er
Ġport rait
Ġest Ã¡n
ç§ °
Ġnewsp apers
he et
Ġcost ume
Ġcent r
ress ive
sk ie
Ġin clus
ant age
Ġun ve
ĠS ent
ĠM ut
App le
Ġsyn chron
Ġimp osed
Ġcast ing
ott i
ĠK aren
å¿ ħ
Ġapp les
Ġcond emn
ĠCol omb
Ġsche mes
k h
ĠK il
ĠN ap
ĠL l
0 10
Ġbe w
Ġtra pped
Ġperman ently
ke eper
Ġp ied
ĠNot ice
Ġpro bl
Ġdest ro
Ġw oke
ĠF est
Ġde er
Ġmagnific ent
icht e
ub er
Ġquant o
Ġplug ins
n ement
Ġexc el
OR Y
. âĢľ
ge bra
ĠB ild
ĠL en
Ġbo iler
Ġthreat ening
Ġlog ged
us ers
17 6
ĉ Ċ
Ġn urt
ĠK an
ĠF actory
person al
board ing
ĠPay Pal
it ud
ic ia
ĠK night
ĠO H
Ġtim eline
Ġcris p
æ £
Ġharm on
ĠCond itions
in v
ĠG OP
ĠAlp ha
Ġest ar
uc iÃ
AM P
rim p
T urn
ert ation
Ġdownload ing
Ġsold ier
field s
erm at
Ġcomment ary
n ell
Ġbe ast
ĠS olution
est ly
ron ics
Ar gs
ĠPh ase
Ġpl a
ew er
bu ilt
ĠB ere
Ġre pr
Ġperson nes
K it
Ġs ung
ĠF ol
are tt
ĠMet ro
Ġdiscl osure
Ġenzym e
Ġexch anges
T M
Ġcomp iled
Ġaccess ibility
r ays
V M
ĠPut in
Ġt res
Ġpa ired
Ġc attle
ĠL ay
Ġpeu vent
abul ary
ins ert
Ġnut ritional
Ġuns igned
hes ive
ĠUp on
ges ch
Ġsim ilarly
Ġst rap
Ġment or
Ġconsc ience
Ġf res
ĠS oul
Ġfinanc ially
Ġsubstant ially
Aut o
Ġposit ively
' /
ĠFil ter
Ġcard iac
Ġres ur
Ġmedic ines
D oc
o ise
Ġtr anqu
al er
AN S
Ġh obby
ĠJ oint
ĠAcad emic
Ġall es
Ġdif erent
h ad
ĠCl ay
15 1
Ġcin ema
Ġsou ls
O UT
ortun ate
Ġvalid ation
Ġpart ie
13 6
ĠJ ag
ob a
Reg ist
Ġtransf ers
Ġsw itched
Ġpun ct
Every thing
Ġtra iner
n st
op ath
Ġf ried
ĠD ating
ec ess
Ġprom o
Ġpure ly
Ġwe ed
Ġd all
Pan el
Ġins ult
16 1
Ġped est
al ine
ĠArt ist
ĠSim ilarly
Ġexplicit ly
ĠOr lando
Ġar th
ĠSt age
2 12
ĠR eddit
Ġdis gust
Ġun clear
Ġc ables
ĠCal endar
ut ed
Ġcelebr ity
m ir
St orage
Ġposition ed
ĠC i
Ġz ak
F riend
Ġautom obile
ĠSo on
ris k
Ġre ign
qu el
é» ĳ
ĠValent ine
Ġquant ities
Ġreve aling
ĠJer ry
ĠSurg ery
Respond er
Cont ainer
A F
ĠF act
B Y
Ġb ake
Ġm im
Ġsig hed
OL D
Ġhe y
ĠJ our
Ġqu ello
ix els
iel le
ĊĠĠĠĠĠĠĠĠĠĠĠĠĠĠĠĠĠĠĠĠĠĠĠĠ ĠĠĠĠĠĠĠ
C ould
Ġim pe
r ong
ĠSte am
Ġtempor arily
Ã© p
Ġgi orn
Ġsl ave
inc ome
ĠP ope
Im pl
emet ery
Ġtechn ically
ĠdÃ© vel
qu in
Comm on
Ġunpre cedented
an ed
ĠCent ers
ou rag
id x
Ġbehavior al
Ġbelie ving
Ġcaut ion
Ġpro xim
Ġgar bage
Ġsched ules
ĠVi ol
Ġsever ity
f un
Sm all
Dig ital
S R
um ph
Ġtra um
aret te
ĠStat istics
Ġsh ru
ure ment
ĠF M
pe at
ĠJ SON
Ġless er
ĠUlt imate
Ġpool s
S ection
å ł
ton es
Ġinput s
Ġan te
Ġexpect s
Ġblog ger
ĠPot ter
Ġgau ge
ĠB illy
count ry
} _
ĠGr iff
ĠT ed
ĠPitt sburgh
Ġcon greg
AN CE
ag les
Ġproject ed
Ġr ats
ot ional
ĠPat ient
ia o
Ġassum ptions
re ib
ĠPl ans
ical s
op ard
16 2
ie k
ĠPsych ology
ĠApp s
Ġperm et
ĠL ost
Ġsl ipped
ac z
ĠOver view
ustral ia
Ġse i
ance ment
ĠE c
ia z
W ord
Ġoverwhel med
g b
Ġdop o
ĠM oses
usamm en
ĠN ancy
ĠNut rition
reg ion
im pl
Ġfle e
M ike
par ation
Ġelement ary
ĠGo ing
W R
C ell
ĠFl ow
Ġjuris diction
ĠSc ar
iv i
It ems
ĠK el
9 11
Ġrel ates
to String
Ġrest art
ĠV I
Ġcock tail
l inks
Ġlit igation
Ġed itors
ĠP eters
US D
ab an
Ġear liest
Ġcou pled
US E
Ġtur key
P erm
s ession
Ġdispos al
Mus ic
'. /
Ġd ense
Ġdent ist
ĠC ircle
Ġval or
ĠT ot
S ummary
Ġexcept ions
Ġpl umbing
ĠH erm
Ġdom ains
Ġbo om
Ġp ending
Ġgrad uates
Ġalleg edly
ĠP ill
Ġopt ical
Ġmid night
ay ed
Bl og
Ġfaith ful
ul atory
ĠF o
at ro
Ġaff ection
ne x
r ina
Param eter
Ġlog istics
Ġs ido
Ġexpl ored
ĠDisc ount
ĠB uch
ÃŃ o
Ġsil k
Ġinval id
ĠRequ irements
ĠP urchase
Dis play
N N
22 2
## #
13 7
ĠIntern al
Ġupgr ades
ĠDe utsch
â Ĺı
ograp her
W in
Ġdist ribute
Ġarchitect ural
Ġster oid
Ġsom etime
es ters
Ġun st
Ġconst itutional
Ġredd it
Ġsl iding
Ġlim iting
u cc
ĠC M
fr ast
ĠTh an
ĠTe aching
p atch
Ġnot ify
Ġsc am
ex cept
m n
av as
Ġnot ifications
N um
ĠT s
Ġrun ner
ĠDep ending
ĠB MW
Ġlegisl ative
ĠFrank lin
B U
ab ile
M el
ĠG rund
ĠCh a
sm all
ĠM AR
here um
g Ã
ĠEffect s
ou ter
å¤ ±
ĠLa ure
ah o
Ã± a
t ails
iter ranean
f eld
Ġhass le
Ġassess ments
ĠW ays
( :
b ere
ĠLat est
Ġmain tains
Ġcent res
ĠHe avy
Ġst air
rop olitan
uff le
re as
ĠPart s
ĠW el
pre nd
ĠMor ris
ĠPortug al
âĢľ .
amp oo
Ġsun ny
ĠPat tern
Ù Ħ
Ġkun nen
at he
or iginal
Ġinv iting
Ġz Ã¡
st ory
ĠB attery
Ã¢ nd
ĠL uther
Ġsuper vision
Ġco zy
ĠNAS A
ĠPar a
Ġar row
Ġmod ifications
Ġguarante es
Ġsl a
ĠHer o
Ġro de
Ġe go
Ġprelim inary
Ġcl ay
Ġaccount able
ch ten
Ġprob able
Ġtight ly
g reat
ĠCamp aign
Ġbeat en
k om
Ġri p
Ġarriv es
ĠCommission er
æĿ ¡
ĠUn less
n ico
f ahr
ĠCl aire
Ġpers istent
ĠD ans
ĠC otton
Ġf ais
ĠL arry
ĠJess ica
ĠA ber
ĠC zech
Reg ister
ĠA irlines
Ġprem ises
f ood
ĠJ azz
ĠTest ament
Ġst urdy
Ġd ost
ĠC rown
ik el
D ue
Ġvol ta
Ġph ases
Ġinf inite
ĠU hr
act ic
Ġsear ched
Ġev olving
Ġqu arant
ic ar
Ġrecomm ends
>> >
Ġfin ishes
L uc
ĠR ah
15 3
Ġbook ed
Ġact ed
âĤ¬ âĦ¢
ibl ings
Ġrefuge es
ĠB T
ĠPop ular
ĠB eng
Ġpump kin
Ġm all
ĠV IP
Ġn ude
ĠBe ijing
Ġpurs uit
Ġres ign
é¢ ĺ
K ind
Ġa ur
inc ial
Ġdefin itions
s ent
Ġrecept or
Ġatt itudes
ax is
an ol
ic one
Ġstrong est
Ġl ungs
cont in
dim ensional
Ġgen ius
Val ues
13 8
Ġcoord ination
Ġgrand father
Ġspons ors
P ub
W omen
Eng lish
Ġbrand ing
Ġda wn
Ġcraft s
Ġsu g
Ġfro st
Ġbe am
ĠHor se
ER Y
Ġv ind
Ġinte ress
Ġforest s
st Ã¤nd
Ġar riving
v ised
Ġw anna
æŀ Ĺ
t elling
Ġot ro
Ġint est
Ġcoast al
cl oud
ĠSh opping
ĠOb viously
Ġbreast s
Ġalleg ations
form er
ĠMult iple
ĠC ultural
Ġt ribute
l ambda
An al
Ġdat abases
Ġsh irts
ĠH ier
re ne
ĠJ et
Ġtrad es
aÃ± a
', '
ĠDirect ors
ç ª
Ġauthent ication
ĠF if
Quest ion
3 10
ĠA W
Ġenh ancing
Ġcand le
ĠPat ients
t imes
Ġwe iter
ĠGener ation
Ġp Ãºblic
ĠI O
17 2
EX T
p ark
ĠCarl os
ĠM ills
Ġsan ctions
Ġm int
Ġsp ont
le z
ĠP AR
cl am
ĠW HO
ĠDak ota
Ġdes irable
c ision
it ems
ĠNurs ing
hed ral
Ġmem or
Ch at
Ġref ere
Ġenroll ed
Ġl ounge
ven s
ĠP aint
Ġest o
ĠAl most
Ġslee ve
o ft
Ġsequ ences
Ch ris
IN K
ĠEx hib
ĠMethod s
++ ++
Ġrec her
Ġthought ful
Ġtou ches
on c
ĠIm per
ĠWord s
Ġf erm
Ġtrans cript
uns igned
ĠPar ad
ĠCor ps
Ġlay ing
gl ass
Ġflu ct
ĠM Y
ĠCN N
Ġp umps
ik en
ĠComm ons
ĠWorks hop
c p
ĠMit chell
á »
Ġgu er
A ge
Ġnot eb
eng u
ĠEv ans
w d
Ġattend ees
ĠP i
ĠAgricult ure
[ [
er red
out ube
Ġur ged
ĠC able
ĠInd ians
Ġst are
Ġincent ive
Ġstr angers
Ġshort age
Ġsusp icious
Ġrou ter
Ġcraft ed
Ġintu itive
ĠEx cellent
Ġpredict ions
Ġab normal
Ġen light
H a
Ġt am
ĠAm endment
Ġen compass
ĠO FF
ĠK arl
ĠPro bably
ĠPar ks
ĠE M
ĠS we
ĠM ol
Ġrecycl ed
ĠJ ake
o ors
m ount
Ġc innamon
gh ai
Ġsav oir
p it
ĠCh ron
å¦Ĥ æŀľ
ĠLas er
Ġesc ort
Ġsevent h
A pi
Face book
14 3
Ġforg ive
en as
Ġanim ated
Ġman o
S elf
Ġc ared
ĠN ode
um ar
ĠS und
16 6
Ġher b
Ġplan es
st o
ĠN u
un to
ot er
Ġu Å
ta ient
Ġsw ap
al one
... )
n om
ĠR ew
Ġar ter
Ġwork flow
Ġdash board
Ġtrig gered
os se
Ġab y
Ġlog s
inter face
ĠSam uel
b ach
Ġkind ness
th anks
eng ine
Ġpul se
ĠCD C
ec onomic
ĠWi Fi
LE CT
op ing
Ġarg uing
pow ered
Ġcomm ence
ĠMarsh all
Ġrep orters
Ġprec aut
Ġs ulf
ov an
ili ate
Ġpred iction
ĠArk ansas
p oon
le en
Ġdom inated
CA A
Ġcr ust
Ġri vers
åº ľ
sett ings
ĠProject s
Ġadapt ation
ad ora
Ġwe ite
be cca
Ġapplic ant
Ġsy rup
ĠChel sea
W orks
Ġappear ances
) /
Ġassist ed
Any way
Ġass urance
Ñ ı
Ŀ ¤
Ġint ra
Ġactiv ists
ĠAb d
Ġtoler ance
per ature
Ġlic ensing
Writ er
Ġro ster
ĠD ru
ĠHot els
STR ACT
En c
Ġrid ers
Spe aking
ĠDat abase
ĠR NA
ĠThe ater
ĠAm sterdam
åĮ º
uck ing
Ġred irect
b oth
ĠWal ter
ĠIss ues
Hist ory
Ġdi agram
Ġfail ures
ĠVis a
h alf
ĠT N
ĠStud ios
ĠElement ary
ĠB asket
T ool
ĠA ld
bl ue
ĠArgent ina
Ġlow ered
Ġb iet
Ch annel
claim er
Ġmolec ules
le ased
es us
ĠR unning
Ã¡ rio
Ġdef ending
Ġbes ch
ĠR anch
ĠL OL
ĠAd m
ĠIn come
è® ®
Ġall ies
Ġcomp rend
amm ad
Rec ommended
Ġfire place
5 12
Hel per
health y
g od
ĠSal v
4 20
Ġdef ining
Ġhard est
ĠCru z
Ġtime out
Ġh Ã¶
ĠLib erty
L INE
Ġpick up
P rop
c io
ĠGu est
th ink
ĠIniti ative
ĠC SS
ĠL ip
Ġhe lic
ĠTe il
ĠW ang
ĠL inda
ĠO scar
Ġche eks
Ġconst itution
ĠChe f
ĠMarg aret
Ġstick ing
ĠP T
Ġest os
æį ®
ĠM ining
Ġsystem atic
Ġmet ric
Ġwond ers
Ġp ir
rit ies
Ġworry ing
ĠMain tenance
am ples
ul ates
ĠF ortunately
ĠNe ck
Ġc ob
Ġpro ceeds
op l
Ġtax i
ĠA round
he at
Ġ ion
ĠOr acle
iz aciÃ
Ġlearn ers
men u
Ġpack et
Ġwater proof
ment ioned
ĠN OW
Ġrespond ents
oc cup
pl aces
Ġapp end
res istant
ĠCr ime
Ġcheck out
M ade
LA Y
ion ale
H y
Ġm uff
S ervices
ĠAny way
Ġdiscuss es
æĿ ĥ
Ġvari ants
at omic
Ġbest e
sh are
Ġmoist ur
ĠB ott
Ġun ity
ĠS MS
Ġa pro
14 2
ĠD ublin
Ġrep ository
ĠON E
Ġinnov ations
ĠÃ© qu
ĠN avig
az i
Ġdam it
Ġru in
Ġcar riers
D ouble
P tr
b its
Ġam ateur
Ġambit ious
Ġaut umn
Ġic ons
Ġadvoc acy
Ġhyper t
ac re
ĠW ow
Re ally
l adesh
Ġch im
ĠMar io
ĠS ites
Ġk in
ari ant
Ġsec urities
Ġappro ve
id ency
Ġse pt
Ġso vere
Ġcream y
j os
os ity
Ġpath way
Ġadvoc ates
Î ¿
E mail
k te
ud son
Sim ple
Ġtrad ed
l ov
Ġam azed
Ġcrowd ed
ier o
Ġhilar ious
Ġpod r
Ġstret ched
av ian
å ¡
äº ¤
, -
Ġrest ra
ĠS yn
ĠPhil ip
Ġunder go
ĠJul ia
ĠCar bon
Ġcat ast
åĢ Ļ
ind uced
ast ically
Ġal tered
C M
t n
Ġbe ats
oust ic
Ġg ospel
R NA
Ġal k
Ġcongr at
T ab
Ġsan ct
ang a
Ġc ri
am iliar
Ġquarter back
W ar
Ñ ĭ
re place
Ġfound ing
Ġgr in
16 4
Ġext ending
ĠSwed ish
ft y
S ex
Ġo ak
Ġv ivid
Ġknock ed
rec ord
ĠCh anges
L oc
e val
Rep ly
Ġreal ise
Ġbelong ing
Ġfor k
Ġbe e
ip h
Ġhum ble
ĠBrother s
ien na
Ġadminist ered
Ġdes arroll
v ano
and ed
parent s
ĠManufact uring
ĠBuff alo
Ġg own
ĠR aw
Ġcon du
ĠEngine er
ç± »
\" ,\"
le urs
Ġtor ch
ĠGl ad
st ruction
Ġperm ett
Ġtables poons
pe z
ĠP HP
<< _
Ġeinf ach
Ġins isted
Ġdos age
Ġsque ez
Ġrepl ies
Ġhorm ones
Ġp ode
Ġconfig ur
ĠH oney
ĠMur ray
Ġmod ification
SW ER
. (
out ing
ach i
ĠSing h
T F
ĠI gn
ĠM itt
Ġcom ed
ĠR oot
p ired
T D
Ġcompet ent
L ow
ĠIt ems
Ġt ales
Ã©rie ur
ul ously
ĠRec ipe
ĠG DP
() ->
15 4
Ġgot ta
equ als
Ġresearc her
ur ate
Pack age
ĠM ight
ĠL ots
Ġcomp ression
Ġhoriz on
Ġp ipes
et c
Ġb ark
el ia
å Ļ
Ġin expensive
Ġpar as
Cl ose
Ġrec reation
ĠG eb
ĠG arc
Ġrepl ica
ou rage
N I
Ġnuest ro
vel le
sh ort
èĭ ±
ĠJohn ny
Ġmor ph
v ic
Ġbas eline
H ard
ĠN athan
Ġreg ener
Ġweb inar
ch io
Ġscream ing
ĠP rices
ĠArchitect ure
Ġcompliment ary
arm ing
iv ia
ours es
¼ ¼
Comm unity
Ġfat ty
ĠConnect ion
Ġunc ons
Ġa plic
Ġpro xy
alth ough
unt u
n Äħ
ĠR F
16 3
ĠOr d
ĠBar ry
Te le
any on
ĠMen u
? âĢĻ
Ġpro jet
Ġpred omin
oc y
og an
Ġpou vez
n as
ĠG ospel
Ġcar p
ĠCirc uit
Ġbet ray
Ġdi ver
Ġd us
Ġconv iction
he a
Ġc akes
ĠJ ar
ĠC ant
Ġqu arters
ĠH onda
ell ar
ok o
Ġbr ides
ie ux
Ġcou pons
Ġeuro pe
ĠLiver pool
Ġwsz yst
ĠWire less
ĠArab ia
= \\
15 7
h m
Ġpr zed
app le
Ġsmall est
ĠT ap
Ġal igned
sc hen
AB STRACT
Ġmark ers
l av
Ġimm ense
An swer
Up dated
Ġpo ems
æĿ Ģ
è± ¡
ĠO liver
Ġwell being
ĠH amp
Ġsoc ieties
ĠFood s
ÅĤ Äħ
ĠJ ak
Ġlink ing
ĠBu ilt
Stud ents
æ» ¡
Ġins ane
Ġer st
ĠPol ish
Ġste pping
Ġdies el
T unes
ig ion
Ġill um
Ġsmart phones
Ġmet adata
Ġcoord inate
Ġath lete
Ġrit ual
Ġdistingu ish
ĠH ack
Ġattack ing
Ġexplos ion
Ġk ernel
Ġimmun ity
m ask
ĠPoint s
Act ivity
at Äĥ
ĠSch olar
Ġplant ing
Ġmis under
O s
ĠA A
Ġv as
ek ing
sh it
H ouse
Ġimag in
14 7
Ġdent ro
od i
Ġbo asts
Å¡ e
Ġsens ible
Ġl b
ade qu
Ġorg ans
Ġmathemat ics
Ġcalc ulation
äºº çļĦ
ĠLa uren
Ġdecor ated
P resent
owe j
ĠB A
ĠN am
Ġdiscover ing
16 9
Ġround ed
List en
ĠElect ronic
arr ings
Ġinflu ential
ĠDe cl
Ġhospital ity
es o
ĠE UR
ot on
Ġev olve
ĠA Z
am ment
Ġmarg inal
imp se
ĠH ood
re q
æ± Ĥ
Ġcollabor ate
ul k
ĠL ov
Ġcr ushed
Ġcle aring
D a
Ġsp ice
ab in
C F
Ġbound ary
ĠCh ile
ra k
ĠN intendo
Ġse ct
Ġcom bo
m ag
unt a
åĩ »
Ġdo v
Ġmark er
Ġregul ate
ight ing
Ġtechn icians
Ġep it
ĠLE GO
h in
Ġper ipher
ÅĤ ug
f d
add r
y nt
Ġey el
g end
15 9
++ ;
ĊĠĠĠĠĠĠĠĠĠĠĠĠĠĠĠĠ Ġ
Ġdr ift
ĠG ru
Ġan ge
Ġa in
FA ULT
Ġsoc io
ĠSpecial ist
Back ground
Ġeffic acy
Ġposition ing
ĠG el
ĠGreat er
V AC
Ġpet it
ĠRead y
15 6
Ġtraged y
rent e
by tes
u Å
Ġunf ortunate
um i
St ation
ĠH S
Ġen semble
ĠView s
åĪ ĩ
Ġbrut al
Ġg ente
C amp
et on
ĠF I
Ġpo z
im ming
i ary
enc ias
Ġam end
H on
ator ies
Ġlast s
Ġl iable
ĠGuard ian
Ġdu o
ind e
Ġfl oral
ro e
Ġintim id
Ġce leb
ĠLe ather
ĠDe gree
ĠF err
Ġch ase
f Ã¶r
Ġcz as
ĠCustom ers
ec a
sem bl
al igned
art o
Ġd angers
ãĢ ĳ
Comp any
G iven
E asy
ĠAb u
H ol
Ġan ime
irm ingham
Ġstri ps
oun ters
Ġseam less
h ouses
Ġex cluded
ĠRef erence
Ġbegin ners
en os
ĠAgain st
Ġcher ry
Ġa ument
Ġaccount ability
Ġdat aset
boy s
Ġcos metic
Ġretail er
Ġmusic ian
Ġc uc
Ġdet erior
Ġf al
Ġm Ã©t
oc ado
ild en
Ġtyp ing
Ġresil ience
Ġcontin ent
u pt
Ġs og
Ġinform al
ĠBen jamin
Ġw aren
ĠSupp lement
Ġqu ella
Ser ial
Ġhor r
S ET
Ġexhaust ed
L and
Ġun ions
to k
ĠStan ley
14 8
Ġbal con
Ġsam pling
Ġfavor able
Ġp ads
Th ink
Ġscr ut
Ġf ights
ĠH arm
è® ¡
ĠT ickets
het ics
ĠCal cul
Ġrese mb
Ġnow adays
Ġhapp ier
Ã¨ res
ĠF isher
om eters
equ al
ĠH il
Ġdo ch
Ġup side
Ġsched uling
ĠPub lishing
P rivate
æ ¥
rep resent
Ġj ours
iÃ ł
åĳ Ĭ
Ġo sc
ĠLe o
Ġpen alties
ier i
Ref erences
Ġj okes
Ġexpect ation
ot yp
Ġanch or
in is
Ġfoss il
f illed
ĠProgram me
Ġs ond
Ġex empt
ĠDou g
Ġen force
ðŁ ĺ
Ġappropri ately
ĠOlymp ics
Ġsk etch
ĠNor way
O H
ĠNe uro
17 4
Ġdownload s
e au
Ġno on
Ġsal on
Ġam ino
Ġass ass
Ġclar ify
im ages
è¿ ľ
com pl
Cong ratulations
Ġcons iders
FI LE
y w
è¯ Ń
ĠMc Donald
c b
ĠM ob
ĠF ROM
ĠE VER
ĠAb stract
p ic
Ġqu ien
ĠAust ria
Ġprop he
Ġneighborhood s
new s
al en
C as
rib ly
Ġst ark
ĠCr ack
Ġd Ã
Ch oose
T ell
Äį nÃŃ
4 80
ĠL iqu
Ġob esity
ĠVin cent
In v
T emplate
ush i
Ġrev ised
ib a
Ġac ne
ĠprÃ©s ent
} ^
ach ine
app lication
st ack
Ġet was
ĠB ak
Ġto es
osh op
Ġprest igious
Ġus a
Ġbr ass
èĪ ¬
Ġav ons
akes pe
ĠCh an
ĠY ahoo
m ove
Ġcreat ors
ici os
.... ...
Ġconcent rated
S ar
Ġa uc
Ġlic enses
Int roduction
Inte ger
Ġdisc iples
ch anging
2 15
Ġprompt ed
ĠLab our
Ġdo it
ress ing
Ġcount ed
Ġen rich
ĠApp e
cript or
Fr ank
ĠT ank
Ġspin ning
Ġsimpl icity
Ġsubs id
Tw itter
Ġblood y
ĠSc ore
it us
T ON
ĠÂ °
Ġext r
Ġvie le
Ġinter section
ĠDog s
Ġje j
ĠB less
Ġge ht
V O
Ġsp oon
R ock
Ġh arness
ĠIn j
Ġgrand es
V R
é ¥
Ġf aint
foot er
Ġne p
est a
ĠK ap
Ġlabel ed
Ġca us
str ate
ĠWeek ly
ĠC rist
Ġport ions
Ġrank ings
am t
Ġthat s
ploy ed
Ġind ia
ĠHist orical
M ary
Â º
Ġbl ink
Ġvel ocity
Ġj an
ĠN ar
00 3
ĠĠĠĠĠĠĠĠ ĠĠĠĠĠ
ro ke
Ġen act
Ġtw itter
d id
s ort
ĠDev ice
Ġblog gers
ĠBuild er
ĠCl aim
ĠR ib
Ġo w
Ġbree ze
Ġsp ices
T ex
Ġinfect ious
Ġterror ism
ĠH our
Ġfix ing
Ġatt ributed
ĠMed iterranean
found er
Ġang les
b order
Ġfe ather
Ġmerc y
ig ung
ĠB S
ĠD ent
Å¡ t
ĠW ITH
ĠSub ject
on line
ĠBr as
S ite
ar in
Ġtradem ark
Ġto pped
ĠScient ific
Ġconspir acy
n orm
Ġk ills
t le
i ang
è¯ ·
M ill
um bs
Ġsp y
all ow
Am azon
Ġst ance
Ġdam aging
ud ed
Ġsc ales
Direct or
ĠGar age
ĠT ypes
Ãª ncia
Ġqual ifying
Ġcor rid
ur z
ĠE agle
Ġme ille
bor o
y ect
ĠB ass
ĠR alph
Ġextra ction
Ġindu ced
in se
iel s
Ġopen ly
AR N
Ġdev il
Ġsn apped
æĶ ¯
ĠR acing
Ġdry ing
Ġcheap est
Ġqu il
Ġscript s
ĠMur phy
Ġcent ered
Ġtw isted
Ġpal ette
Ġtast ing
d z
Ġgl impse
ĠDesign er
Ġpol ÃŃt
Ġdeterm ines
Ġban ner
wind ow
Ġl ime
step s
ĠH ash
ĠN T
Ġan ten
Ġten ant
Ġcommun icating
........ ........
P et
Ġno od
Ġfind en
Ġshall ow
m ble
QUE ST
K A
ĠChar acter
Ġslic ed
ĠP ete
AN SWER
Ġcanc elled
Sm art
Ñ ĸ
uc lear
Ġwh olesale
ĠMan aging
Ġ eller
17 1
ĠParent s
ĠP osition
Ġrest ing
Ġslic es
Ġsoc iet
dom ain
ĠM ack
re view
Ġqual ifications
ĠDemocr at
uls ion
ĠC ad
ĠLe ban
tt ps
Ġtort ure
Ġent ers
z ero
Ġser Ã¡
Ġperson ne
r andom
ab lished
Ġrel ieve
Ġcolor ing
Ġb end
ĠStart ing
ĠTer ry
ĠC oc
th ree
30 1
in tern
Ġe cc
Ġman era
ied z
ĠGrad uate
ĠB I
- )
ĠP oker
Ġz m
ĠPalestin ian
ĠDirect ory
ĠSt a
ĠM umbai
ĠL ion
Ã¶ glich
Ġstra ins
Ġmount ing
ica id
å¿ «
es ium
çİ° åľ¨
y y
ĠMer cedes
Ġw ow
Ġdismiss ed
v t
Ġc tx
sen al
gl obal
Ġearth qu
ner gy
# [
8 50
er i
uff s
Ġbl own
Ġte go
ĠG ent
Ġcertific ates
MA T
b ast
ap on
ĠSt re
; \">
50 1
t ab
ĠB rief
ĠC amb
ĠTh read
Pro perties
Ġfuck ed
inte gr
Ġcolon ial
Ġve c
n p
Ġtu ition
ge re
Ġver bal
ĠPl astic
ĠUn a
æµ ģ
ĠT emplate
ĠS id
ĠF ont
Ġprem iÃ¨re
Ġprevent ed
ĠV ir
Ġeduc ators
Off set
m ember
L as
Ġt riv
Def inition
A p
Ġcom ics
Ġrecru iting
est on
raul ic
ĠInvest ig
Lat est
Add itionally
Ġn asty
Ġre imb
ĠAct ivity
ĠIn cludes
Ġtra ff
Ġmail ing
Ġjourn als
f oo
Ġr ay
b ek
Rober t
Ġdiff ic
Ġdevast ating
acht en
Ġrandom ly
Ġdis able
Ġres ervation
é£ İ
ĠV ector
Ġcare g
Ġemb ro
ĠWind ow
s ens
M ember
and el
ĠCompet ition
ĠT ak
Su ccess
ĠV M
ay ing
ine e
. \\
15 8
Ġann Ã©es
ĠCom plex
De lete
Ġenjoy ment
list ed
Ã® tre
v m
å© Ĩ
Ġprop rio
vent ory
ç¦ »
Ġs ins
AR Y
ĠEurop a
Ġse ine
Ġinterview ed
Ġacceler ate
ke iten
ĠInstall ation
it ably
Ġtub es
Ġhypothes is
ĠN y
è¿ ĳ
Ġill ustration
Ġex otic
ĠN an
ĠK Ã
s ys
Ġn iÃ±
Ġmas ters
Ġsurge on
Hand le
ĠProv ide
Å Ī
t one
Ġresearch ing
ok u
Ġdemon stration
B ill
fl ower
Ġnob le
pr ising
ĠBapt ist
Ġsl id
ĠGu ar
h aw
Ġsub ur
L ib
Ð Ĥ
ç Į
Ġrob ots
infl amm
Ġprov es
Ġpel o
Ġvacc inated
Ġwas ted
Work ing
ĠE li
olut e
g ender
Ġw ipe
Ġmathemat ical
E ss
cont ainer
) ),
we alth
ĠQu arter
Ġanticip ate
ĠK yle
yl an
ĠN i
h ui
our cing
c od
Ġdr one
ĠIm plement
Ġam endment
Ġn ar
Ġmass es
ĠAdvis ory
Ġsubs idi
âĢ¦ )
Ġtrad itionally
Ġdist ancing
Ġprofession ally
ĠMet a
Ġjo ins
Ġpor ch
Ġhyg iene
ĠK un
Ġof t
ĠColl abor
D L
ou x
ĠT yler
Ġbu cks
Ġg um
Ġref ined
ĠReg ardless
art a
epend ence
akespe are
co al
åİ Ĩ
D M
P rior
ĠP uerto
m bre
Ġb ure
Ġbus es
Ġha ha
Ġam ple
Ġinter pre
14 6
Ġprohib ited
ink les
Ġtre k
ĠMont ana
Ġso b
Ġacc us
Ġpast or
ĠPort al
J im
} /
ab en
g oogle
ĠDep uty
åħ ±
Ġrenew ed
ro x
Ġover ly
he res
ĠExt ract
ĠSt ainless
Ġaggreg ate
ĠS ou
ig m
Ġfar mer
ĠKe ith
Ġcrowd s
Ġdesper ately
Ġf iring
ĠP RE
Ġimport ed
Ġal lev
ĠUnder standing
Ġmon ument
ĠNe igh
ĠOper ation
so ever
Ġtr illion
ĠSur v
Tra vel
D am
ah u
ãĢ Ĳ
Ġutil iz
Ġ ici
Ġmis er
Ġiniti ated
ĠThe me
ux e
ĠB enn
Ġw ounded
Ġcer amic
ç Ĺ
S everal
Ġthr ust
ĠPro perties
Ġeval uating
Ġincre ment
Ġsh iny
ĠAr n
Ġpass port
Rem ove
Ġtherap ies
17 3
Ã§ o
Ġpo inter
ĠNe g
Ġbud dy
Ġaf in
Ġexpl ores
Ġz wei
Ġs iblings
ĠAn im
ĠA RE
ĠIh re
ra re
ten ant
Ġun bel
Ġeconom ies
hens ion
Ã ĥ
ç ħ
ĠIm agine
Ġelig ibility
ĠMove ment
ĠÃ Ĺ
Ġup graded
Ġcart oon
ĠBelg ium
ock er
ALL Y
ien st
Ġk aÅ
Ex ample
Ġprison ers
We ight
ĠAdvent ure
Ġpubl ishers
ĠPear l
Ġfundra ising
In it
Ġrev ision
Ġrec ession
Ġsoc ially
a ways
ĠAm azing
be h
rop y
Ġpa ÃŃs
Ġmir acle
gg y
Ġne i
Ġtrans plant
Ã¤ d
Ġk a
Ġhel met
Å¯ Å
ag ner
Ġuns ure
Ġreput able
ENT S
ĠGener ic
g io
Ġsumm it
Ġl ent
ter min
Ġt us
Ġs are
ĠS AP
L aw
add ing
Ġexp ose
ĠEt hereum
Ġward robe
Ġprompt ly
is le
ĠM ist
br aska
ĠTe ams
Ġconv inc
Ġdecor ative
ĠH unt
l ive
oper ative
G F
Ġquestion ed
ĠBudd h
me an
Ġb ord
Ġreal ised
on ne
P ark
Ġfore head
ĠG it
c ue
ox ic
qu ito
Ġagre es
ĠBroad way
Ġb illing
Ġdef icit
Ġabs urd
Ġstret ching
Ñ Į
Ġbl ues
Ġrecord ings
Ġneck lace
Pol icy
M ass
ĠZ en
Ġexpress ing
IS H
Ġwe aken
Micro soft
Ġbra ke
Ġpaper work
Ġt ier
æľ ª
Ġwitness es
ul d
Ġvulner ability
ruct or
T el
Th ings
Äĥ r
Ġdiam onds
Ġmar vel
T or
k c
Ġtra vers
Ġnot ified
ĠP ull
A pr
Ġl od
im eter
Ġkiss ed
Ass oci
pan ic
Ġnouve au
Bes ides
Ġassemb led
Ġd iving
Ġnuest ra
OT O
Ġharm ony
ĠC ord
Ġcour s
ĠD ES
ĠActiv ities
H H
Ġtr unk
Ġmet abolic
ĠW or
Ġcom pte
og l
Ġcor p
Ġrad ar
Ġoccup ation
ĠM t
ĠC anyon
ĠSl ot
Ġcom merce
Ġinsect s
Ġjournal ism
Ġw ounds
Ġcor on
è¿Ļ ç§į
ĠE ST
ĠMe asure
Ġpull s
Ġcan al
ĠP ine
ĠLuc y
Off ice
Spe aker
Â ±
Ġvent ilation
bor ough
ĠAc cept
Ġrefriger ator
Ġreal izing
Ġaccess ing
Ġaw ake
Ġsevere ly
Ġelabor ate
d ed
prot ected
ow anie
Ġcoll ision
ix on
ĠAn a
Ġcustom s
ĠEss ay
Ġr het
ens ch
Log ger
Ġperson n
put er
ĠGh ana
M ic
} _{
Ġne ue
ian i
ruct ive
ac io
Ġaccident ally
Ġlet t
ET H
ĠIndivid ual
Ġarm or
olit ical
Ġve el
Ġunc omm
ple ted
æ¯ ı
ĠProcess ing
Ġlon ely
Ġcont ributes
ÅĻ e
Ġorgan ised
Pro file
Ġmo is
Ġci udad
Ġteen ager
âĢĿ ?
Ġint act
There fore
ari us
Ġscr ub
qu oi
hr t
Ġe ing
I mp
ĠR oof
ĠInt o
ĠFant asy
ke ley
ies z
ĠRe venue
ĠR ivers
Ġrel ies
ateg or
bb ing
Ġb or
Ġhabit at
des ign
ĠBi ology
im ag
ĠT ampa
Ġpro be
ĠK ill
AN G
Ġt read
el ong
Ġdo i
% ).
ĠBreak fast
W alk
Ġgo ed
roduct ive
ĠE ight
Ġin box
Ġd zie
Ġyear ly
ĠMe g
L earning
Ġun sere
Ġelim inating
Ġa ids
ive au
Ġnom inated
m ov
Ġqu asi
ĠSh a
ĠR oute
i Äĩ
Ġrec reational
Ġcomfort ably
Ġdiscipl ines
ÅĽ cie
Ġhistor ically
Ġshru gged
Ġquestion ing
Ġillustr ated
und a
Ġgreen house
g om
Ġins ulation
Ã¶ t
Ġcalcul ations
ĠB od
SI ZE
Ġrehab ilitation
Ġm oy
ĠTes la
Ġenerget ic
ĠD raft
Ġs unt
Ġsuper market
Ġtou g
Ã¤ ft
Ġmagn itude
ens ation
ĠM aur
ri os
Ex cellent
ĠNe il
d iff
Ġunt o
ĠGard ens
Ġm p
Ġsubm itting
Ġpray ing
Ġuncons cious
Net work
ie z
any ch
zz i
Ġg odd
Ġn ÄĽ
Ġpart ition
Ġpath ways
Ġrecogn ised
Ġfeas ible
_ \\
B ank
v oc
ĠIn put
D ialog
O d
Ġs Ã£o
ĠS or
CO L
ĠS ounds
ĠSpe aker
Y S
yst er
ĠÃ® nt
ĠL akes
B ra
c en
ig u
Ġv ÃŃ
Ġcl ause
Ġyield s
ĠIn form
ĠB ir
Ġlight ning
ĠApp arently
Ġprend re
ub le
Ġmis con
ĠRich ards
M aking
2 11
Ġelim inated
Ġs chn
Ġinform aciÃ
Ġencourag ement
ĠO z
ĠGroup s
Exper ience
l asses
v ity
ĠMarc us
es z
ĠEx cell
( `
ĠB elt
Ġball ot
ĠPict ures
Ġan kle
Ġpre g
ĠGener ally
ĭ åŃĲ
he ter
Ġd ÃŃas
Deb ug
re ra
ĠT ow
Ġsc andal
Ġye ast
ĠPro ced
ĠUn iverse
ĠY u
ĠIB M
Ġa h
Ġh ttps
P ref
ook ie
èµ· æĿ¥
Ġclim bed
Ġcancell ation
S us
au kee
lic her
ĠFin n
Elim inar
Ġdyn am
Ġdu ct
Ġe b
ĠP retty
ĠR C
ĠPer ry
Ġoptim ized
wi Äħ
Ġslee ves
IC A
Ġk ay
Ġbench mark
o ard
Ġcoll agen
Ġsad ly
ĠD ual
ss on
ĠWal mart
Ġenthusi astic
tt i
Ġepid emic
Ġz ÅĤ
Ġa ston
ĠE at
. âĢĶ
end ants
Ġwish ing
Ġcompr ised
Ġqu er
Ġcr unch
Ġvalid ate
I ch
ĠC in
ens chaft
ĠS um
è ħ
ash i
U ID
wer k
ç® ¡
M uch
Ġmush rooms
ĠBr ig
Ġutter ly
Pl ace
requ ire
Ġcompat ibility
Y O
ĠL ate
uc hen
Ġo we
H ttp
Ġs id
Ġpol ish
ific ant
Ġmem orial
Ġher bal
ym pt
ĠSp ark
RE G
âĢĿ ).
Ġabsor ption
ĠDe b
Ġast hma
bre lla
Ġgr ammar
Ġclin ics
Ġpropri etary
ĠIn fin
16 7
ĠLuc as
ph ony
Ġm uito
Ġse w
Ch anged
Ġe fect
ĠU pper
Ġsw o
Ã® t
æ Ĵ
Ġn erves
ul se
her ic
Ġmer ge
Ġimpl ant
Ġconfig ured
Ġconv icted
ä¸ ĩ
Ġev ac
Som ething
Ġinter vals
Ġb apt
le ur
t urn
Current ly
ch ts
Ġright eous
Ġadministr ators
Ġl ord
Ġgo ver
F ont
? >
ze j
rypt ed
ĠA er
ĠJ ahren
Ġstat ue
itte es
ĠW ere
Ġinher it
Ġhands ome
Ġmac hen
ĠBang ladesh
Ġmand ate
Rep ository
Ġcontrovers y
met ry
ĠMat hemat
re o
Ġimp air
Ġfre ed
ĠE ra
Ġinc oming
ĊĊĉĉ ĉ
K ing
ar u
Ġp se
Ġl ac
Ġcel ui
Ġren cont
ĠBase ball
hal b
Ġanaly zing
Ġenc uent
ĠTH AT
izar re
p un
ib an
ild e
Ġbicy cle
Ġw itch
Ġcomp ost
Ġch am
ili ans
Ġyoung est
it ime
an ic
ĠMarket s
ĠList en
Ġforg iveness
ĠR uth
l age
Ġdark er
ĠFre qu
Ġbra ins
ze ug
Ġg ates
N P
ĠAl s
N D
TE ST
Ġi Tunes
æ ¨
ĠR SS
ĠVol unte
Ġdoct rine
Ġmal ware
Ġrec alled
est hes
Ġgl orious
ĠHill ary
clip se
Ġde re
frast ructure
Ġw p
Ġro ku
Ġdiscl ose
Ġhum idity
P ara
ĠT W
ĠPer o
ĠBB Q
æŃ ¥
Ġd rown
åĨ Ļ
ĠM AN
Sing le
L anguage
ber y
ĠSub s
P eter
Ġgr ind
t ar
ri ages
Ġview er
d river
Ġmagn et
ĠLabor atory
Ġart if
amp ed
Ġharass ment
Ġoper a
Ġdecl aration
ik h
ĠBat man
Ġspat ial
ĠDi agn
åĪ° äºĨ
S em
re v
ĠEd wards
Ġm io
Ġchar ter
Ġclear ance
Ġdistingu ished
d ar
Ġex ports
Ġfe eds
R oot
charg ed
ĠW atson
W ir
pl ot
ĠÃľ ber
Ġsu cks
Ġoptim istic
Ġor n
Ġproblem atic
åı¯ èĥ
B ad
J oe
Ġorig ins
Ġaccept s
u ite
Ġpl ag
cri ber
ĠConsult ing
Ġrab bit
å¤ į
Ġenc ryption
ĠAll ow
ĠPict ure
S pring
ĠN HS
ĠHe ight
Ġbegin ner
D est
l agen
ĠSl ots
ĠH annah
Sec urity
ĠRec ipes
ĠCook ies
Ġinter mediate
Ġut ilities
Ã¡ r
Ġto da
Ġp ob
Ġin line
Ġsun set
J un
ĠSim ilar
Ġerect ile
C lean
Ġt mp
ĠDep osit
Ġapolog ize
she et
il on
em or
ĠL it
Ģ å§ĭ
br al
su ccess
ed uc
est o
M atch
fil ename
ĠAdvert ising
Ġpat ches
rop ract
ç© º
d l
ĠPress ure
ĠSher iff
Ġsp icy
I con
eles c
v ine
ĠS I
ĠCon cept
ĠCo in
Ġpat ron
v ÃŃ
Ġpost ers
Ġins ist
Ġacqu iring
\" -
ex ample
ĠDef ault
<! --
ĠBeh avior
Ġmar ble
Ġtamb Ã©m
ĠBer g
Ġgrat uit
ĠM ask
Ġk w
rou pe
ĠOut look
Ġsla very
T en
Ġsc attered
ĠV ista
Ġs ys
pred ict
J SON
ĠK ol
ĠWh ole
ĠE A
Ġinvent ed
Ġliv est
as per
Ġal erts
ĠF iles
Ġrevolution ary
Ġcon ve
Ġex h
Ġcalcul ator
oco a
Ġmic rowave
em por
ĠJul ie
Ġinc ub
ĠW elt
f to
ĠS hip
ĠR ud
Ġremain der
Ġenroll ment
Ĩ æĺ¯
ĠM akes
mb H
Ġbe verage
Ġd enn
aut re
Ġlect ures
act ivity
Ġflav our
ĠFab ric
' \\
Ġl ust
ĠP izza
Ġwur den
Ġcar n
N OW
Ġf oll
ĠM ak
20 6
ĠCam eron
B al
W ood
Ġpe anut
riv ed
Ġspokes man
ĠO w
Ġc age
Ġwhat soever
Ġmed al
Ġe er
t ube
Ġg reens
Pro du
F und
Ġsou vent
umin ium
d elta
cl er
ĠPhot oshop
l ot
ĠAb raham
ĠElect rical
ĠAss ert
ĠTH C
ĠB ever
re ed
reat ment
çļĦ ä¸Ģ
ĠGro ve
connect ion
Ġpartic le
met a
b ens
Ġf als
ĠT B
Ġrefer ral
æķ Į
ĠJ ed
inc inn
Ġscan ning
L ess
Ġinst al
ĠA WS
Re lease
Ġsle pt
ĠBl ues
Ġne bo
was her
äº ī
Ġsystem ic
R ule
00 4
Ġsynt hesis
20 7
App ly
b c
Ġlast ed
ĠPhil osoph
Ġst ove
ĠCoord inator
f est
ĠC red
ĠAl z
d ependent
reat h
ĠGl en
ĠFin land
Ã´ le
return s
ĠCub a
ens en
ĠWood s
Ġre novation
Ġout rage
ĠBr un
Ġdon ors
Ġinc idence
Ġpou red
Ġmin ut
ĠBrazil ian
Ġf ist
Ġdig ging
Ġsecure ly
F ast
end or
Ġshare holders
ĠAssoci ates
Ġdefect s
ĠForm at
ĠExpl orer
Ġupload ed
ar ine
Ġn ell
ass oci
he y
Ġmist aken
Ġfestiv als
\" },
Ġpop ul
res ource
Ġcompre hend
wh y
ra pper
ĠFl ore
è· Ł
ĠG onz
Ġfl ed
ĠD S
Ġcomp osite
Ġcoal ition
s ince
Ġde ve
Ġdipl om
ownt own
Ġan onym
Ġon set
ĠE dd
ull ivan
Ġp encil
Cont ents
w aukee
ac ial
Ġint ric
Ġlib erty
Ġz omb
Ġgener ates
ien n
\\ /
S ale
Ġbit ch
Ġtables poon
z ig
Ġa hora
ent ity
ĠStrateg ic
Ġhead ache
ien ia
ch ied
F lo
Ġb ak
ĠT ags
ĠIh nen
Ġv ale
Ġge ometry
Ġende av
Ġadoles c
Ġroof ing
Ġge en
Ġin adequ
Ġexem ple
Ġdelight ful
Ġvib e
Ġus o
Ġgr im
ĠAll ah
20 8
Ġpreval ence
E V
Ġwho ever
Ġrig id
Ġstick y
incinn ati
Ġbere its
Ġgl am
Ġfree zer
}$ $
ĠA CT
M or
Ġfr anÃ§
ĠIn itial
ut to
F IG
ĠTurn er
//////////////// ////////////////
ig ers
ĠPark ing
ĠL av
Ġrib bon
Ġde port
Ġnegoti ate
u ir
Ġj og
Ġcall back
er ick
E A
ĠL anc
Ġform e
Ġil leg
Ġstrengthen ing
Ġsucceed ed
as ia
Ġalt ri
Ġaim ing
ĠB ug
ĠMov ies
met ric
ven ant
c orn
Ġw it
Or iginal
ĠJam ie
ĠN BC
Ġmelt ed
ĠR ol
olog ia
ĠHon or
ĠSustain able
t m
ĠM BA
ĠChe ese
ĠG ear
E U
Ġst oring
ĠRequ ired
eng o
Ġl igne
g it
ag ent
Ġcl icks
Ġs out
Ġsafe guard
J apan
ic ol
ĠHel en
Ġmon it
ĠCap itol
ĠL ooks
ĠEl ite
mod els
Ġdisappoint ment
âĺħ âĺħ
Ġle ap
Ġrock et
\" `
Ġall ocation
Ġpres erved
col lect
ĠnÃ© cess
se z
Ġteen agers
w ait
he ws
Ġbill ions
Ġv irgin
Ġnue vo
pl ug
ĠdÃ© f
ĠC atherine
av ier
Ġblack jack
Ġdoub ts
Ġw ires
Ġc ops
ap hor
IC S
a ise
Ġge z
form s
ĠRich mond
Ġabsor bed
ĠC AR
Ġeven ly
Ġce ux
Br and
Ġhook ed
Ġtrag ic
Ġk am
og gle
Ġre lying
Oper ation
ed ay
ech o
Ġsurviv ors
Ġc ens
Ġbath rooms
Ġsort ed
Ġtak Å
Ġanalyt ical
Ġcomp ress
Ġrend ered
Ġo x
Ġch unk
ĠCrim inal
Ġse iz
Ġign oring
Ġcual quier
Ġcin em
Ġrecip ients
Ġst ab
Ġcur ves
Ġconcept ual
r and
ĠP ER
Ġwh ites
ic ator
ĠT iger
ĠGuid elines
ĠRub y
Ġg iÃł
ĠR Ã
whe el
Ġinstrument al
D u
ĠMort gage
Ġse it
Ġhead lines
ĠEx c
Ġm ou
ĠD ow
ĠK irk
Ġpress ures
em ption
Ġl lam
ĠProm ise
/ -
M IN
Ġh ott
Ġon s
ĠBr anch
Ġwilling ness
ĠS ierra
Ġcompr ises
Ġb un
Ġlos es
ĠMov ing
T oo
Ġpa used
mm m
Ġd ens
see ing
ĠC ult
ĠN ad
Ġsw ear
Ġid iot
Ġot ra
Ġwork outs
Ġtro v
Ġhead phones
ĠPhys ics
ĠB anks
Ġs ights
ĠW ide
w iches
ĠT err
ST AT
Ġfr Ã¥n
Ġstuff ed
Ġfac ile
Ġt bsp
us ions
ĠR ush
Ġsn ake
Ġconsult ants
Ġcred ibility
ĠF ill
g amma
U lt
Ġm ÄĽ
Ġhe x
test ing
Ġprolong ed
33 3
Ġmer it
Ġass ort
ex tern
reg n
ĠTe en
Ġd well
au pt
ä¸ ļ
ĠSt ick
Ġpri x
avas cript
p ages
sw ers
Ġb ounce
Ġl ace
ur ry
feed ing
Ġad ul
pass word
U ntil
Ġconc erts
Ġl akes
ad ers
Ġequ ations
ĠV a
ĠSh ar
En abled
ĠExam ples
Ġproxim ity
ĠT ip
ĠdÃ©vel opp
Ġs ocket
Ġf ats
ĠN as
Ġbl ades
Ġl ingu
ch ter
Ġreflect ing
Ġban ana
Ġfree zing
ĠS V
Ġvoc abulary
uss en
æľ į
Ġmuseum s
P ool
Ġignor ance
F M
Ġqu iz
HE CK
m iss
Ġeff et
h Ã¶
ĠÂ ±
Ġpup ils
ĠT A
ĠSpot ify
Ġcolle ague
Ġexam ining
ĠNash ville
Ġspecial izes
ĠÃ© c
Ġlo os
at os
Ġesc aped
ord able
As ync
C ast
ĠEv olution
Ġfem me
EN CE
Ġsm iles
ess er
Ġhat te
Ġdign ity
Ġmon itors
ĠAr be
ĠP am
ĠMed icaid
Ġswe pt
us o
Ġread ings
Ġfound ations
Build ing
Ġdes puÃ©s
ĠW R
Disc over
Ġsond ern
he ets
ch anged
ai ro
ic ates
Ã¡ z
ĠB irmingham
ym an
åĵ ģ
Ġworth while
Ġadd ict
Ġpost ure
D ER
Ġa ura
ĠH ip
Ġcr ush
ol ation
ĠF T
Ġch ic
è¿Ļ éĩĮ
Read y
un ts
Ġcompet itions
Ġcarb ohyd
ĠM is
Ġin appropriate
Ġout reach
ĠLe af
UN T
æ· ±
e i
ĠY am
ĠSac r
ĠY ang
Ġh ast
Ġl ion
ĠArch ive
Ġr ushing
Ġbe an
ĠF B
t rain
ĠW o
Ġeng lish
Un ivers
Ġadvis ory
ĠPow der
ĠCoun ter
Inst all
Mem bers
ĠIn nov
Ġweb page
Ġrend ering
rolog ical
Ġt ilt
ĠGl as
rit o
Ġbeh ave
oc co
rap es
ĠAss istance
Ġave z
Ġoff shore
ĠESP N
Ġâ ľ
Ġur ine
Ġsque eze
ri Ã¨re
Ġfil ename
gener ation
oy s
Ãº s
Ġplay ground
c ke
ĠT ourn
Ġteen age
\" $
ĠD ash
ĠSh ield
Ġsol ic
Ġra bb
Ġutil is
Ġhe cho
Ġca ffe
Ġce ase
Ġpos es
Ġmur m
Ġp ins
ĠE PA
Ġcont ing
J esus
Ġhur ts
ĠL au
Ġread only
Ã¢ n
ĠLog in
ĠH udson
Ġhalf way
ĠSl ow
Ġsalv ation
Ġf usion
G rid
k ed
Ġincon ven
ĠAr g
Ġinstall ations
Ġassoci ates
Ġpet ite
ĠTh under
ĠSch w
ĠBut ton
ĠCom ing
ĠSe g
C apt
arett es
Ġfin ale
Ġx x
ĠBr andon
Ġhon our
in th
av o
ĠK ont
Ġgra ins
quis ite
Ġprec ip
! '
Ġformer ly
ĠEnt ry
Ġproblem a
ĠK eto
Ġid i
4 10
ĠN om
Ġjud icial
ĠSh akespeare
Ġt id
Ġst umbled
t ic
Ġin ability
Ġcomm ander
Ġle fto
sh ared
Ġf ict
Ġhighlight ing
ĠEm ployment
Ġwar mer
ĠT i
Ġap ost
Ġsh oppers
Ã» t
è ĳ
ĠD ust
Ġsle ek
b ath
E in
Ġlad der
k ol
ĠCert ification
P arser
Ġcrack ed
Ġceleb rities
Ġc Ã´t
æĹ¶ åĢĻ
ĠG mbH
âĢĿ :
Ġl assen
Ġtim er
Call back
r ift
ament al
Ġuncomm on
Ġdown s
Ġlim itation
Ġrecon c
Ġintrig uing
som ething
int a
Ġstr at
ĠHar bor
U X
Ġwid get
Ġprin cess
ĠBudd hist
ĠIncre ase
Ġrenew al
ĠEgypt ian
L I
T ip
åħ ĥ
ĠExpl ore
Ġno i
Ġro ok
ĠAny thing
F re
read ing
Ġlog ger
Ġphys ique
ĠT ol
Ġcush ion
ote chn
n ed
ov at
Ġped iatric
Ġamb ient
ajÄħ c
J on
U nd
Ġd ictionary
qu a
çģ «
Start ing
Ġf ry
ĠK er
s q
Ġpre jud
Ġbr idges
ĠOper a
Ġty l
Ġment ions
Ev ents
ĠStan ford
Ġyog urt
l anguage
ĠB ike
IG H
Ġt ienen
ĠW et
ĠBern ard
ä¸ĸ çķĮ
Ġsex ually
L ittle
b oot
Ġnot ably
) \"
N ER
******************************** ********************************
Ġe Bay
ĠVe hicle
Ġemp res
ĠDim ensions
Ġh ind
ge w
Ġrun ners
By te
ĠL P
with out
Ġhonest y
Ġemp resa
us hers
ĠU g
åŁ º
ĠP P
ĠEn sure
åŃ ĺ
_ ;
ĠNich olas
Ind ia
ĠCons ervation
Ġinquir ies
( .
il k
Ġinflamm atory
ÃŃ d
Ġcon e
ĠCO MP
Ġcommit ments
Ġillustr ations
Ġem pir
Ġsing ular
Ġdeb ts
3 80
Ġenthusi asts
Ġten ants
Ġstart ups
ici encies
IS S
ĠAm anda
ĠH ob
ĠDel aware
Ġring tones
ol ia
ĠWell ness
Ġris es
Ãº mer
Ġfulf illing
ĠEduc ational
l b
ĠZ ach
ĠLa unch
Ġor th
Ġcomment ing
Ġgeb ru
ĠHamp shire
ĠV AT
ĠX P
Ġarg ues
oll o
Ġt ed
0 20
30 3
UT H
ĠSp ons
Stand ard
Ġimag ery
ĠX ML
Tr ust
urg ers
Ġhe ater
Ġcrim inals
æĬ ¥
Ġsun shine
t alk
Ġbl owing
Mem ory
Ġfl ush
Ġin h
se ys
ĠL ights
Ġinn ings
ĠC afe
ros ion
Ġble w
Ġpul monary
ĠAren a
Ġassist ing
ric ular
Ġemp ire
Ġhand made
re x
ĠMine craft
ĠD rag
ĠCan on
ĠL iv
uff ed
M arc
ĠW P
ĠV illa
Ġactiv ist
é¦ ĸ
ĠFl ight
ET A
b be
ract ice
ric ing
ĠT ib
Ġfut ures
Ġvirt ue
per formance
ĠAutom atic
Ġvolunt ary
Ġdes erved
Ġl end
ĠFrame work
Ġal ph
ĠProt ocol
Ġm ug
ĠMin or
ĠInd igenous
ĠSh adow
Ġfix es
ĠD h
Ġback wards
ĠLuck ily
Ġemb ark
ond ers
Ġpar ce
ii i
Ġbudget s
i enced
ar am
Ġall iance
Sc reen
ĠTe achers
By tes
at ten
Ġstar ring
Ġsc oop
Ġbre eding
Ġliter acy
Ġinsert ed
ang s
Ġself ish
ĠIS BN
ĠAnd rea
R om
Ġbr as
Ġintrodu ces
g em
ĠEx ample
ĠNe braska
Ġsize of
M eta
f el
Ġup ward
ĠShe ll
Ġkid n
ĠL odge
Com plete
Ġcig arette
O G
Ġund efined
stand ard
!!!! !!!!
Ġincl ined
B row
icht en
Ġlength s
c ss
ues e
ĠImpro ve
c ounter
ĠA uss
Ġshout ed
è¿ Ĳ
x FF
ĠAN Y
l ings
Ġbi om
ĠSy nd
ĠM ai
Ġsc ra
az ar
is y
Ġsur pass
ĠFurn iture
ĠNorth west
ĠM arl
Ġser ie
Ġrad ius
Ġdiss ertation
ĠPre vious
u ur
av il
Ġhur ry
Ġf ighter
Ġimp ly
m ma
x it
R ay
ĠR is
Ġtrav Ã©s
3 75
Ġby pass
ĠSt ress
ĠShan ghai
ĠDem on
alg ia
Ġw reck
Ġdep ressed
Ġinc ap
ĠInst r
ION S
² ¾
Ġsp inal
Ġbl onde
v c
ow ania
Ġnight mare
eme ins
P LE
cel and
Ġconvenient ly
ĠHe ights
Ġind igenous
ĠJour ney
Ġ iv
Ġs her
ĠIl s
ĠBal ance
ĠK az
ĠW end
M it
ĠL anka
Ġo so
Ġes a
ĠDen mark
æīĢ æľī
Ġb ip
ĠEx pect
Ġpoll s
ier no
iv as
ĠCom fort
cont rolled
Ġcoord inator
S ER
pat hetic
und le
ĠCR M
Ġm um
Ġsec uring
Ġcollect ively
Ġpro yect
ĠO UT
Ġa unt
40 4
Ġill usion
i ological
ib ration
ad der
ĠRom a
Ġpropag anda
C u
ĠD ennis
D iff
Ġexp ans
Ġdiscl osed
C AR
Ġparent ing
Ġtab s
Any one
Ġconst itute
ĠA ur
ĠD anny
ĠfaÃ§ on
Ġr ation
ĠG ast
Ġjack pot
Q ual
Le ave
ĠAlber ta
Ġdec ir
ĠK ra
Ġsk ate
ĠS Y
å¸ Į
log ger
R R
Ġ Ċĉĉĉĉ
ĠWork ers
ĠIndust ries
C rit
ĠAssoci ated
= (
Ġbus h
ĠG ill
osp heric
ÅĽ li
ĠColumb us
Ġsuscept ible
<! [
Ġenvelop e
Ġillustr ate
pay ers
ł çļĦ
Ġoccur rence
u pload
ĠB ach
ĠG y
pa Ã±
ĠM aps
ph is
Ġmill enn
ĠAsh ley
Ġpal ace
~~~~ ~~~~
ĠI k
Ġpro state
Ġselect ions
Ġfl ies
J ournal
éĤ£ äºĽ
C enter
Ġd abei
ĠF inding
ĠEvent ually
ĠV ik
bal ance
Ġtyl ko
Ġp inch
ĠC ob
unc an
m ile
ĠS r
op last
Ġre per
ow ane
Ġwarn ings
l aim
il ant
ÅĤ Ã
Ġcr ude
G H
ĠHar per
ĠC IA
Ġdep uty
Ġfresh ly
Ġpoly mer
ĠM IT
ĠK os
Ġtransm itted
Ġextract ed
ple asant
In f
ĠFl ower
Ġex tern
Ġdeliber ately
w idget
Ġju Å
ĠS outheast
S ide
ĠA j
Ġant iv
Ġsoft ly
ĠS aw
Ġhol istic
ĠPolit ics
Ġd rought
ĠN ie
Ġres ide
ĠHe brew
comp onent
b usiness
Ġhuman itarian
Ġmark ing
Mat rix
ĠRog ers
D uration
Ġprem iere
Ġvegg ies
Ġdou bled
ĠJere my
3 40
ĠV lad
ĠJeff erson
Ġev angel
ĠMass age
Ġps y
} ^{
Ġnew born
Ġjust ified
âĶ Ģ
Ġe ben
ĠP rest
ass o
g ow
m ons
ĠN ormal
te il
ĠRec ent
Ġstre ak
ul i
åĻ ¨
L in
Ġt urt
un al
ĠA verage
ĠEntre prene
Ġdon or
Ġoverlook ed
Ġsche ma
Ġv ague
Ġzw ischen
éļ ı
ĠU b
Ġver w
s hips
Ġk et
Ġte as
ĠRec ruit
Ġgentle man
R ect
z in
que ue
Ġmarket ers
Ġsupposed ly
D IS
Ġdem ographic
back ground
Tr ump
Ġfore most
f iction
Ġsk ull
ĠLeg end
Ġallerg ies
Ġwe ars
inc are
Ġt ir
S ales
éĻ ¤
Ġinhabit ants
l ayer
Ġcaf Ã©
inflamm atory
Ġmight y
ĠWild life
iss ue
ĠDiv ine
23 2
Ġo g
r ade
et own
Ġst ap
Ġsc rat
Ġphotograp hers
Ġret rou
Ġremov es
Ġunc over
S ync
Ġarth ritis
ient ras
Ġcrit ically
Ġinflu enza
ĠL amb
Ġra ison
Ġteach ings
al ore
RE AT
Ġgest ure
in line
åħ «
ĠMo z
ĠHy per
Ġtra it
B er
Ġnation ally
ĠH ello
ĠL ect
ĠN ATO
Ġinter ference
Ġt ard
or io
Ġsw elling
ĠE co
Ġmet tre
ĠAd s
ern et
asp berry
Ġfair y
ĠpÅĻ ed
Ġlean ing
M i
Ġon ze
ĠD od
] >
ĠTra ffic
ĠN I
com b
M ot
ĠL ucky
pe re
Ġsw itches
Ġdra gged
in burgh
ed o
ĠRe ce
ĠCont emporary
Ob j
ÑĤ Ð
ill ery
ass ium
m itted
ri ka
Ġpol ished
Ġrent als
ĠC arn
Ġnotice able
Ġt Ã©lÃ©
22 1
Ġs ino
Ġdist ances
Ġcurs or
Ġf ir
Ġweb cam
ĠTik Tok
Ġe ig
L ou
Ġt s
ak u
roph y
ĠS hen
Ġcompl aining
Ġemb argo
æ± ī
s afe
Ġtri umph
ĠExt ension
=' '
Ġvis ually
Ġall ocated
Ġflood ing
ĠNob ody
x is
ĠD ere
Ġsp awn
Ġkind ly
ĠMont real
ĠC es
ĠSp in
ĠInst itut
lie ÃŁ
Not es
ĠVe get
ĠL iber
Ste ve
Ġillness es
import ant
D IR
ĠM ent
Ġpract iced
Ġpolit ically
Ġreform s
F iles
Ġcar rots
Ġfold ed
I ter
Ġbe ads
ĠF acts
m ad
Ġswe ep
Ġmot ors
Ġf ade
id em
Ġsurpr ises
Ġrif le
ĠAP K
F requ
ĠC reated
ĠTre k
ĠMar x
ĠTw in
ĠPl aza
ĠRec ently
ĠC ock
ĠR M
ĠJ ama
Ġrisk y
ĠVeter ans
Ġp oc
ĠCh ip
ag h
Th us
ĠG ew
ĠU T
. __
Ġquel que
Ġwag ering
Ġsp ells
Ã¡ p
ç ¿
å ŀ
agg i
uss els
Ġd ile
ist es
ur ally
Ġm asc
b rief
f Ã©
ch y
ry s
Ġad ore
aff e
Ġcomp ute
Ġest as
Ġdisc ontin
ĠDo ing
r ans
iel en
Ġmir rors
Ġmod al
Ġx xx
Ã¡l nÃŃ
ĠNic ole
ĠForm ula
she ll
j as
s upp
Ġinf ring
ĠTre asury
Ġh ats
ĠPre p
Ġaw aken
ur st
ĠSt adt
Ġcr acks
Ġn g
ĠC urt
Je ff
ĠM iles
ĠV intage
Ġsc enery
Us ers
av ia
ĠPrinc ipal
Ġwhis per
Ġhor as
ĠF ruit
Ġa irlines
Ġb achelor
Ġrep ublic
ĠTour ism
U AL
İ ä
Sc ott
æķ ´
Ġle aks
ĠSec ure
ĠChamp ion
Ġa fore
ĠOcc up
ĠS ue
Wh atever
Ġdisplay ing
Ġimp rison
zy ch
Ġexhib its
Ġdis ruption
Ġchat ting
Ġto mb
ĠR B
Ġperform ers
b ucks
Ġh ints
Ġth under
ra its
Ġple as
isse ment
Ġbard zo
C lear
Ġprov ing
Ã¢ te
D elta
Ġcand les
Ġrese ar
Ġguess ing
ĠMil k
ĠRe ed
Ġprem ise
ĠS B
Ġse afood
Ġmon sters
VI EW
Ġst ain
S at
ycl ing
Ã¤ re
ĠSh aw
che ster
Ġl ively
ĠC arr
il ers
Ġpic nic
Ġse as
Ġr ider
Ġt Ãªte
Ġinte res
Ġpr ince
Ġappe als
ĠM es
ĠP oss
Ġinvestig ators
Ġlaun ches
Ġhope ful
cont ract
Ġg ek
Ġstim ulation
ign ant
Ġk osten
ett le
ĠB our
Ġrelev ance
Ġdon ne
Ġste ak
æ¶ Ī
ĠL abel
Ġm ondo
Ġcheck list
Ġnom ination
ĠHoll and
' -
27 5
f te
ĠS pl
Ġla iss
Ġpay roll
Ġunder way
Ġto ast
ĠNe ither
Ġspot light
b ands
åı «
ĠT D
ĠHe ather
Ġell os
ĠCreat ing
m Ãªme
Ġad j
Ġcomun ic
Al ways
ĠDis covery
ĠT rial
Ġvot er
Ġreject ion
Christ ian
xt y
Ġquant itative
ĠScholars hip
ra red
Ġnons ense
Ġbe m
r ance
Ġf ocal
è§ Ĩ
ĠAccount ing
ĠL an
ĠL il
Ġpropos ition
Ġbot hered
ge ben
ag ain
Ġdeb it
Ġdisput es
Ġde ment
Sim ilar
st aw
Ġsimpl est
C at
ĠW ear
amm ing
udd y
Ġgover ning
Ġtoss ed
c ano
h of
ĠÃ Ģ
ĠSh ah
ell ery
ĠN CAA
AN GE
En vironment
Exp ression
Ġsuper visor
s ocial
ar b
Ġhat red
ĠEconom y
ĠRod rig
Ġb ibli
Ġde hyd
Ġtourn aments
ĠG D
gom ery
def ined
ĠMount ains
M ove
r ative
Ġret ained
è Į
ĠFr ances
Ġremed ies
ind ust
Ġc res
Ġenf ants
Ġunh appy
Ġper ceive
ver ages
H uman
Ġc elle
Ġstim ulate
ĠgÃ©nÃ© ral
Ġserv ant
Ġpou voir
Ġbron ze
Ġseason ed
Ġspr ings
V EL
Ġtrust worthy
Ġcup c
Ġfemin ine
ol in
ĠBl ake
d c
ĠN ike
n Ã¡
in ternal
ĠW I
F it
ĠFem ale
ĠS lo
EN S
Ġb izarre
Res ources
k k
ĠAl bum
Ġcivil ian
Ġpr ac
Ġg n
Ġsm ells
Ġout fits
Ġproud ly
Ġimper ative
hol m
Ġun for
Ġel bow
d one
ig hed
x i
w ire
ĠCh am
Ġdecor ation
Ġnou velle
ner g
Ġmie ux
ĠK re
Ġsp here
ĠPro gress
Ġconf ess
/ .
ÑĢ Ð
Ġk icks
Ġn ause
ĠP it
s ky
æĹ¶ éĹ´
ATION S
ĠWhen ever
Ġwas ting
ĠX L
Ġcitizens hip
ĠPro tein
ĠDom ain
ĠM R
C ategories
Ġemb od
res pect
ĠE arn
ors ch
Ġopp osing
als a
Ġbes oin
l Ã
Ġpro ps
leg en
Ġlack s
W al
t oo
ĠRec ommend
ong o
Ġf ighters
æĸ Ń
Ġpar c
c ro
ĠH VAC
Ġlapt ops
ĊĠĠĠĠĠĠĠĠĠĠĠĠĠĠĠĠ ĠĠ
Ġlaw makers
Ġmas cul
ĠU AE
ĠEx ercise
ĠHT TP
Ġf Ã¡
met ics
ĠR oth
Ġsl aves
Ġant ique
ĠLiter ature
Ġl ob
Ġre he
Ġja ar
Ġconvinc ing
Ġw ager
Ċĉĉĉĉĉĉ ĉ
Ġsab er
re act
ĠA chie
ĠSc an
enn en
N ear
Ġj Ã¡
Ġreserv ations
ĠIn fect
Ã¨ rent
ĠF ri
ĠĠĠĠĠĠĠĠ ĠĠĠĠĠĠĠ
ĠRec ogn
Ġj erk
ans om
Ġar ising
n ative
sh op
ĠWar ner
in vest
Ġm are
ĠProf ession
J ECT
ĠCont ents
ĠNep al
ĠLo ans
ĠL ily
Ġv ista
ĠÃ© taient
Ġenvironment ally
ĠRead er
ric o
T ax
Ġsh ining
Ġshock ing
! ==
ay an
Ġext ensively
Ġinterpret ed
Ġgrat is
B UG
olec ular
ĠV AL
å¸ Ĥ
st rom
ĠB ent
Ġad apter
F ac
z ial
i ated
ĠDet erm
Ġdecor ations
h re
ĠT ier
æł ĳ
Ġv ivo
ĠV enez
ĠB ald
x ico
Ġind oors
Ġsp ends
Ġdisturb ing
Ġaccompany ing
N AS
ĠD inner
ĠT all
ig es
Ã¨ le
Ġprim era
Ġref in
Ġdet r
ĠV ine
c reat
Ġbook mark
ins ula
ĠBas ically
pher d
ĠdÃ© p
Ġgra pe
au ff
Ġabund ant
ĠEval uation
ith ium
Ġir regular
less ness
æ º
on ials
ĠL ed
Ġex agger
Dan iel
ĠH aven
av in
role um
re ment
Ġu pl
Ch arl
Ã¨ te
[ -
In itial
ĠPier re
Ġt ribe
ĠCor onavirus
c irc
ĠM orm
P Y
Ġmom s
nie j
net work
Ġrepr Ã©s
Ġst ems
ĠW ing
Ġallerg ic
b are
op o
ĠL CD
Ġgrand children
æĪĳ çļĦ
math bb
Ġcoord inates
v ier
Ġmais on
ĠSy nt
Ġst ip
AN K
head s
ĠD ictionary
Ġremember ing
Intern et
D ATE
ĠB in
ĠBer keley
ĠPhill ips
f ollow
ĠOption al
ĠIs n
Ġcapt uring
ĠHarr ison
Ġpres ervation
Ġlower ing
in ical
Rec ently
cont act
Ġe g
O bs
c ool
ĠN HL
Ġenc ounters
b read
ĠGen esis
m and
om al
ĠAn swer
sc ience
v ote
ab lish
Ġsty ling
dis ciplinary
éĽ Ĩ
s in
Ġtutorial s
Ġversch ied
\" ?
b atch
ing le
ud os
ĠE agles
ĠMil an
thod ox
ĠHind u
Ġpot s
æģ ¯
Ġjet zt
focus ed
itut ed
ĠWell s
Ġhead line
Ġmess y
Ġfool ish
art icle
edd y
Ġtrig gers
ĠExcell ence
f lex
j ava
Ġw ives
ĠE lection
Ġveget arian
F s
ĠM AT
Ġ ounces
te am
uts che
Ġfart her
Ġro asted
Ġamer ican
ĠCon duct
ari at
ĠL is
è¿ ŀ
20 9
Ġcomp ort
Un like
f c
Ġw sp
ä¸į èĥ
Ġexplo it
ĠTh rive
Ġdry er
Ġrail way
ph alt
Ġmal icious
Ġbe es
ans on
ĠJ ur
Ġcur b
Ġdecre ases
Ġbl o
Ġinv oice
Ġpar ade
ĠR andom
ric ia
R ole
ent lich
auf en
id ates
Ġdark net
Ġroot ed
qu ence
h Ã¶r
Ġc ambi
em er
Ġpar s
ĠVerm ont
Ġpresum ably
H I
Ġ ĊĊ
ĠUp dates
Ġadvertis ements
Ġl Ã©g
av i
ne apolis
Ġend ors
ĠGi ants
ect ive
Ġretrie ve
ĠAlz heimer
ĠEth iop
29 0
Ġrecogn izes
Ġbal ancing
Ġ ĊĠ
Ġc itt
ĠInst ant
T L
Ġy ummy
Ġlisten ers
Ġinev itably
3 25
å¤ ĩ
Ġw ed
Ġimp ose
Ġrelig ions
Ġfulf illed
Ġar rog
ĠPl ate
Ġlavor o
Ġdupl icate
Ġbon ne
L ic
u art
Ġa pl
ĠRom ney
l ining
it et
çĶ µ
ĠJah re
ĠSte in
ĠSte ps
Ġadjust ing
Ġth ru
Ġlik ing
Ġrestrict ion
Ġv oll
print ln
ĠAccess ories
Ġsympt om
Ġse Ã±
Ġcr icket
Ġantib odies
it ary
Count ry
Ġaccred ited
Ġo tras
Ġdiv or
æķ ħ
Ġiniti ate
ĠEss ential
ĠD oll
ĠPe pper
ĠðŁĺ Ģ
Ġdiferent es
obb ies
olog ÃŃa
Ġdem ol
it ory
P ot
Ġre els
Äĥ ri
Select ed
23 5
D iv
W ashington
yn amic
ĠV P
po ke
requ is
Ġdistract ed
Ġvalid ity
ĠA ri
Ġvol atility
Ġbacter ial
Ġincorpor ating
ĠF uel
Ã¤t z
Ġco ated
[] ;
Pl ugin
ĠBro oks
Ġfu els
Ġobs essed
Ġt and
Ġcyber security
Ġad ren
l uss
Ġpar ser
ĠTop ics
Ġbless ings
il ig
Ġwith stand
ĠF ro
Ġm ars
ĠF ame
Ġprot otype
Ġbl oss
Ġarch ives
at uring
ĠW is
ĠK in
f at
Ġing en
ies e
Ġcl usters
Ġantib iotics
r ang
ave ment
ĠG ates
ĠShe et
Ġf etch
ff en
Ġcent ro
leg ate
Ġinf erior
ĠOr t
Ġcomp art
Ġatt ent
ĠDi pl
Ġplaint iff
Ġo ss
ĠNo ah
ĠNew ton
ar beit
Ġadvance ment
Ġvoc als
may be
Ġs ant
F ive
Ġstat ut
init ial
Ġco ff
Ġn elle
ĠdÃ© t
ĠRe act
Ġtrans c
Ġeng ra
w rap
Ġgood bye
pr ice
Ġimp art
M ut
ĠOper ating
J S
Ġmonit ored
Ġsufficient ly
ci as
ĠBr ady
åĬ ¡
èĬ ±
Ġquarant ine
ĠBe er
ord en
Ġcaut ious
ĠColomb ia
Ġem pathy
ps y
Ġcontact ing
c ular
Ġport e
Â ¶
Ġequ ilib
Ġdecent ral
e or
it an
ort al
Are a
Ġn Ã¥
Ġout dated
Ġutil ization
ĠWrit er
iÃ§ Ã£o
$ -
} \"
ĠH ook
Ġspecific ation
ĠArab ic
k ill
Ġfib ers
ĠF itz
Ġpneum onia
? Â»
u ably
Ġw ij
am ina
eng es
Ġne ural
te re
ĠX X
n it
p resent
Ġang els
Ġprofess ors
Ġrum ors
Ġa while
ĠV acc
ĠR ug
Ġirre levant
v Ã©
Ġliter al
G G
ĠIran ian
ĠConc rete
Ġmatur ity
ĠP ere
Ġlandsc apes
Ġtra ject
Ġh in
ip a
int ed
Ġgu iding
ĠC incinnati
Ġkn it
Ġinv ites
ita ire
ĠD uty
æŀ ģ
ĠMembers hip
C a
Ġrest e
head ed
ĠWalk ing
ĠK ick
Ġr ude
Ġent end
Ġarbit rary
B IT
Q uality
Ġkick ing
Ġmet aphor
ĠC raw
Ġstr ang
ĠEng agement
! ),
Ġfl or
Ġp esso
Ġfin o
ĠB obby
ri en
ĠAb b
ilden afil
Ġint Ã©
cast le
ĠId aho
Ġscholars hips
ĠP oor
ist i
Ġcl er
Ġass im
éĢ ł
o a
Ġw ont
Ġhand ler
Ġpe que
pos ium
Ġeight h
Ġdi ets
Ġdifferent ial
Ġpron ounced
Ġan terior
Ġpay load
Ġjer sey
Ġbe verages
2 16
S afe
Ġy rs
Ġmed ieval
P rem
Ã¡ st
w ert
ĠL uis
ĠTrad itional
ĠSt ir
ĠEx cept
ĠUt il
ĠJosh ua
Ġint ro
ĠEd it
Ġenh ances
Ġp ixels
Ġmerch ant
ne e
enc iÃ
ĠReg ulation
Sche ma
ĠChem ical
ĠFl ag
Ġden ial
B ob
Act ually
Ġadd itions
ĠRe becca
Ġconse gu
Ġbom bs
ĠDeutsch land
Ġsh rimp
Ġcorrespond ence
Pol ice
Ġtrib al
Ġman eu
n l
Ġste aling
ĊĠĠĠĠ ĊĠĠĠĠ
Ġche es
ver ts
ace y
iel der
f ang
ĠK i
ĠU ber
Ġident ifies
ĠSo x
T aking
ĠCh uck
O F
Ġhe ights
ĠG ender
load ed
Ġf riction
l iness
Ġapp rent
ĠÃ© lect
Ġpan or
Ġassess ing
ĠHit ler
wnie Å
W D
Ð ´
Ġb ore
Ġsc are
Rich ard
EE E
Ġvra iment
Comp are
ĠI celand
pt ical
ĠSt ruct
Ġbel le
ĠMot ion
Ġo ste
iÃ¨ me
Ġtransm it
plet ion
ĠSp ider
ä¸į è¿ĩ
Be gin
ac ja
25 2
d ad
Ġhell o
Ġterror ists
ç¤ º
ĠV S
åĲ Ĺ
Ġbreak through
; ;
el iness
Ġgl itter
. !
app a
Ġband width
Ġhand ic
Ġlist ener
èİ ·
Ġer f
2 14
den ly
Ġfrag ile
Ġcaffe ine
ĠM OD
Ġpass er
Ã¨ t
year s
ĠTrend s
MA R
S ummer
ĠM N
Al tern
Ġrecover ing
ern a
ĠKind le
Ġmitig ate
ĠP G
ĠSp encer
Ġg ee
00 7
ert on
ĠMot ors
ĠT rent
ag og
Th omas
By Id
Ġh ollow
S ports
op athy
Ġr ays
Ġcan s
Ġab oard
Ġpl at
l ass
Ġqual ification
ĠRE AD
uest a
Ġmix er
ĠPartners hip
m un
ĠFire fox
23 1
Ã¢ ce
Ġinte ger
æ® µ
Ġs ailing
Ġun os
Ġbro th
Ġprol ifer
T yp
por ter
Ġground ed
Ġin just
Ġsl ope
C redit
Ġl itter
ĠIo T
' ))
z ÄĻ
Ġc ov
ĠA ven
un ing
ĠM ead
ĠiP od
Ġfil t
Ġsem inar
Ġpro active
ĠK ash
Ġdement ia
2 13
qu ote
ĠBo ost
ĠJack ie
unn ed
Ġpe ppers
Ġse ated
ĊĠĠĠĠĠĠĠĠĠĠĠĠĠĠĠĠĠĠĠĠĠĠĠĠĠĠĠĠĠĠĠĠ ĠĠĠĠĠĠĠĠĠĠĠĠĠĠĠĠ
Ġdigest ive
Ġ ries
ĠA CC
qu Ã©
Ġv ier
Ġrout ines
Ġphil os
Ġte Å
ĠThrough out
j al
Ġan at
th row
30 4
ĠOak land
e ach
Ġne j
Ġvoy age
ĠI RA
ed en
Ġinf ants
Ġreg ression
( /
I ll
re ich
Ġp ython
op oly
be e
ĠB U
Ġstud ios
al ink
Ġjs ou
- \\
ĠI hr
24 5
A udio
ĠC ette
Ġcur rencies
Ġrig orous
r itt
Al ong
ĠFe ature
Ġre el
ĠD rew
Ġplay offs
ĠC ities
Ġh oe
Ġpar ole
Ġdecor ating
ocyt es
Ġexception ally
U ne
fl ows
Ġsound ing
æĹ¥ æľ¬
pl atform
Ġserv ants
éĢ ī
us able
ri vers
ĠJ ill
owe go
ĠG am
Ġend ure
ĠIn flu
Ġcorrect ed
å ĺ
CO R
r ub
ĠC MS
Ġacc laim
- =
ĠIntegr ation
Ġ Ñģ
Ġstra ps
Ġpreval ent
ĠS eth
Ã© ration
Ġpoly ester
iÃ¨re ment
ĠLab s
Bas ic
c ross
ĠDevelop er
Ġw iring
Ġmar athon
all i
ĠSe bast
ĠSc ale
oss ip
Ġal ta
ĠDa wn
S on
Ġpub blic
Ġhead aches
Ġaffili ated
` .
Spe ed
c ondition
Ġantib ody
Ġen vision
ĠAltern ative
Ġlug gage
Ã¶ l
ĠCB S
Ġsa is
ze go
amm ers
> &
ĠA gg
br ush
çī ĩ
ĠM ul
n amed
Ġsubject ed
arn ish
ĠSand ers
Ġte lev
c ott
Ġref lex
rist ol
Ġsel on
ĠCol on
çº ¦
Ġp udd
M ont
yl um
s igma
Ġup stairs
åı °
Ġseg ur
Ġtr aces
Ġm uc
ĠM uh
Ġform ally
Ġbro kers
Ġpersonal ities
Ġconsist ed
p ayer
ĠC ort
cle an
Ġregist ry
kl ad
ĠAlc ohol
ĠR ates
Que ue
Ġmarg ins
Åĵ ur
Ġinterrupt ed
n ung
Ġun pleasant
ob ia
Ġch ina
Ġgen res
Ġheav ier
ĠN umer
ĠGr ill
Mon th
w ave
OC K
2 24
Ġg ens
å± ķ
Ġfl ux
ĠM unicipal
a an
Ġv isto
Ġcere mon
Ġall en
ĠF ee
U m
ex pr
Ġprem ature
uten ant
V ict
W ay
ĠL I
Ġw icked
Ġundert aken
P ast
åºĶ è¯¥
is ka
Ġh ose
Ġb ricks
Ġde be
ĠFor ces
ĠGr Ã
ĠGrand e
F eed
Ġfragr ance
ĠBank ing
bro ok
Ġrecept ors
Ġ ×
ĠB oss
ĠAr beit
æĳ ©
åħ Ń
Ġl ud
RE L
Ġmanip ulation
Ġancest ors
Ġsad ness
z Ã
oc c
Ġwhere in
Ã©r Ã©
Ġprosper ity
Ġcoh ort
ĠS ara
ine es
c oll
Ġcompos er
Ġfl ames
ĠmÃ¶ glich
ÅĽ my
Ġneg atively
. $
Ġundert ake
0 12
è¶ Ĭ
éĹ® é¢ĺ
Ġgard ening
ect in
åľ° æĸ
Ġcivil ization
Ġsequ el
g ue
ĠH C
Ġterm ination
Ġpro w
ĠD ys
Ġcan on
oh olic
ĠM az
Ġfo il
Ġciv ilians
Ġb ob
ĠC odes
rop ic
Ben efits
Ġdet ox
Ġpr Ã¡
à ¥
Ġt ijd
ĠH amb
Ġ ella
in qu
row th
ĠCor ner
Ġpref ix
iss ent
Ġinv asive
Ġaccess ory
ef it
c ology
ce j
Ġay ud
he astern
M ock
v able
b ial
P ur
ven ile
ĠB orn
ĠD iana
Ms g
ine a
Ġlic ence
ag em
Ġk os
èĩªå·± çļĦ
Ġm isc
ĠW ish
ĠE y
Ġfin es
ol are
Ġer sten
g ens
Ġunse rer
enc ial
Ġsoll te
r als
çĪ ±
ent ation
E arly
Ġmicro phone
Ġfi xtures
Ġej empl
b au
ind y
ĠSat an
ĠThe mes
è¿Ļ ä¸Ģ
Ġav iation
Ġpres ently
ÈĽ ii
Ġt ense
Ġca fe
Ġtail or
5 10
Ġr und
ĠBar ack
ĠN H
30 2
Ġemer g
Ġan abolic
ĠA SS
Ġregul ators
ç¨ ĭ
ht aking
group s
Ġinterf aces
op ening
build er
Ġa we
Ġele ven
tt a
Ġde j
Ġtr ump
Ġz ich
Ġst ole
Ġv apor
Ġch ore
Ġp Ã¡
ĠT S
Com b
Ġmurd ered
Ġmult itude
onom y
p rops
Ġsh ampoo
Ġpers one
ĠF ear
ĠSch ul
Ġlif elong
Ġtransform ing
De cl
40 3
Ġelev ator
Further more
Responder Eliminar
Ġz elf
IS E
Ġreven ge
J A
Ġrecogn ise
ra ined
Ġpractition er
Ġd y
Ġtext ures
us z
Ġcom mer
Ġch asing
Ġdel ta
ph al
IC AL
Per fect
Ġbull shit
B rit
ow ered
Ġab rupt
Ġignor ant
Ġbamb oo
Ġl ump
P ac
an os
å· ŀ
Ġsp elling
Ge orge
Ġstead ily
Ġdestro ying
Ġdef iciency
With in
ĠOwn er
Ġw eddings
ĠC rew
Ġfrank ly
Äĥ t
iz o
ĠEffect ive
Ġme g
ĠApp lied
w ife
Ġpart nered
Ġn y
Ġpo pped
ĠRe uters
ear chers
ĠTyp ically
Ã¶ ff
Ġw aking
us r
pp en
oc hen
line ar
Ġinequ ality
Ã© cial
work ers
Ġintention ally
: \\
vas ive
ĠCl are
Ġfert ility
ar is
ĠBeh ind
et zt
ĠS ort
Ġcre ations
Ġsculpt ure
Ġcrit ique
Ġbalcon y
Ġle gg
Ġgate way
ier to
ĠbÄĻd zie
select ed
ĠL G
to ol
ĠF ellow
ĠK B
me al
ĠCap acity
arrant y
Ġscal p
ĠE ther
Ġn iveau
Ġprint able
Ġg y
ch os
if ter
ĠN g
ĠSand y
ĠMonitor ing
T ur
Ġc erv
pt s
ov Ã¡
ĠDi abetes
ĠMil waukee
m illion
ĠSpe aking
ener gy
22 3
Ġthr one
ograph ics
tes y
ĠOut put
Ġsubm issions
Ġcapt ures
Ġpe ek
Ġfl ick
ÅĤ em
Ġac rylic
ĠQu art
Ġnoteb ook
Ġne on
arth y
ĠRob ot
quir y
all o
Ġsc i
Ġfig uring
pl er
Ġst alk
oy er
åľ Ł
ãģ ®
L inks
ĠB att
Ġopt imum
ĠT icket
Ġback ward
Ġac et
Ġsk a
Ġsp ike
Ġwork load
Ġp raw
ĠW ave
z ec
Ġal umni
at ics
Ġpol ite
ĠAsk ed
ĠK or
4 40
Ġbod ily
Ġtim ber
é ¸
Ġv iene
man ager
Ġposs ibilit
åķ Ĩ
ĠR oche
Ġcertain s
ĠBund es
F ocus
Ġd uck
Ã© rer
Ġrep roductive
Ġstory telling
Fe ature
Ġhott est
l ists
ĠB oe
Ġr ang
ĠAnal yst
Ã©c ur
Ġt et
Ġsec ular
Ġbuild ers
ani u
ĠUn c
de al
ĠFil ip
ĠNet works
Ġthere of
ÈĽ ie
Part icip
ĠCher ry
ge x
İ åĽ
æĺ¯ ä¸Ģ
Ġsubject ive
F ab
V an
res ults
Ġcul min
ĠC row
ĠO ber
ack er
Ġtra ction
Ġgl owing
Ġtim eless
Ġdisappoint ing
Ġpun ish
ĠRes olution
\" [
Ġhead ers
m und
Ġd re
You ng
ĠF Y
ĠG ets
b Ã
ĠL ar
ull en
Ġbo iling
Ã± os
Field s
Ġincom plete
ĠD owntown
L ondon
ĠS UP
Ġhed ge
Ġs iÃ¨
Ġrec uper
Ġu d
ĠImper ial
ĠL emon
ĠV iv
Ġfoll ower
Ġins ured
) *
Ġvamp ire
Ġunbel iev
º å·´
Ġcryptocur rencies
Ġre duct
ĠChem istry
Ġweakness es
ĠSw ift
ĠFour th
ĠSy rian
pat ible
Ġbout ique
Ġar ises
Ġsne ak
s ample
Ġintern ship
ĠDes ktop
Ġtransport ed
Set ting
ĠC od
Ġreal ization
ĠChe v
Ġemphas ize
Ġswall owed
ĠTr inity
Ġstar ters
Ġh acia
ale Å
Ġpassword s
Met adata
ĠDesign s
Ġcyl inder
Ġat om
Ġown ing
ĠAlex and
ĠD ale
ĠZ o
ĠNiger ian
ĠC AP
ur bed
Ġjudg ement
ĠB ert
en h
ĠNe eds
Ġhon ors
ĠD aw
Ġpos ed
bt n
ĠAff iliate
P a
ĠL em
Ġhypert ension
us ch
Ġd ug
wn o
ĠDisc ussion
Ġm ph
Ġun healthy
Ġv ille
Key words
ĠG and
ÃŃ f
Ġpe cul
Ġdrive way
op edia
t ake
fer red
b ane
ĠSt rip
ĠAnn iversary
Ġsand wiches
Hot el
ox ide
éĤ£ ä
Ġorient ed
ĠD ollar
ov Ã©
Ġtw ins
Ġtow els
Ġmen us
Ġdead lines
ĠT ommy
app ly
Ġtri angle
ĠGr id
ĠCo hen
ĠMod els
ĠJ ump
ĠSer iously
ĠCru ise
Ġcur se
() ).
erc a
Ġpred ecess
Ġch ili
Ġrequest ing
F unnels
ĠEqu ity
re lease
Ġbud d
Ġs perm
ĠCh and
è§ Ĥ
ĠCitiz ens
Ġzur Ã
ĠOut side
Ġins ufficient
Ġpas se
Ġdemonstr ating
ĠK atie
E ast
iz ia
Ġtempt ed
weg ian
ĠG E
Ġprodu its
ien za
Ġconnect or
Ġri pped
ĠA K
ĠA ub
Ġpriv ately
b ags
Ġcon n
Ġwrit ings
Param eters
Ġspecial ize
Ġsal aries
Ġstorm s
ĭ åĲİ
orn s
Ġlear nt
Ġfl aws
Ġexist e
Ġqual che
Ġvib ration
Ġgad gets
Ġreimb urse
t emp
ĠA uth
author ized
Ġtraff icking
ĠSam ple
ĠBuddh ism
Ġspec ulation
ĠNorm an
N ick
Ġl ado
sh irts
zi ÄĻ
ç¡ ®
Ġdecre asing
Ġstub born
Ġp ela
Ġcapital ism
ĠNon etheless
se en
at ia
ĠL ions
åĽ ¢
Ġpremium s
um ed
p ent
r ado
ĠD aten
ĠR ide
ĠHar vey
Sm ith
re ce
Ġpark ed
ĠCON T
Ġcounterpart s
A ff
Ġrelie ved
W C
I r
ys ics
ĠFort une
Ġd ai
Ġcirc a
æĶ ¶
to ols
ĠW ie
ess en
Ġhall way
Ġcl one
Ã¨ mes
iss on
Ġstimul us
ĠB il
Ġop ener
rig ation
Ser ies
H en
ĠV ia
åį ĵ
\" '
Ġdies es
Ġdio xide
Ġc ottage
ĠM M
iss an
AN C
s ets
Ġcelebr ations
Ġthe at
Ġpro to
atic a
Ġsuppress ant
Ġe f
th al
Ġup right
Ġdiv isions
ĠÃ Ħ
ĠItal ia
ĠAut hent
In valid
Ġovers ight
he e
ĠP ublisher
pro to
åı ¸
ĠMart ha
Ġseu lement
b res
ĠEmploy ee
ĠInte ger
Ġval uation
Ġfr amed
Ġtrou ver
åĮ ħ
ĠGab riel
Ġy acht
it ant
Ġsurv iving
on ces
h od
ĠC iv
ess ages
ĠM int
ers ch
Ġsupp lying
anal ysis
Ġend urance
Ġm aken
se ver
Ġstick ers
ĠRepresent ative
T ips
im ens
Ġmention ing
5 20
Ġm und
Ġm ise
Ġte e
Ġfrown ed
Ġpur se
F X
Ġw il
ĠA uch
Ġadv ancing
OS E
Rem ote
ĠM AC
Ġimpl icit
Ġrec ib
car bon
Expl ore
Ġp ian
ĠEd inburgh
S Y
ĠT ours
ĠH emp
ĠE as
ĠY o
Ġcompl iant
Ġauthor ization
H et
iv ation
Ġexplan ations
R andom
ĠS SL
Ġus u
Ġcar ved
Ġcop ied
n one
ĠImpro vement
ins pired
th ank
Ġuniqu ely
t v
Ġintent ional
Ġmet res
Ġsexual ity
ĠAng ela
Ġn Ãºmer
ĠC AD
af ety
Ġdraw er
Ġvers es
ĠY outube
å¥ ĩ
Ġcl ut
ç® Ĺ
Ã¤h rend
Ġtri o
st off
ĠVictor ian
Ġsh aping
ĠLe bens
lig t
æĶ¿ åºľ
Ġh one
Ġten ure
at em
Ġb ait
Ġadop ting
3 70
Ġback drop
co le
Ġhur ting
ĠN ak
Ġfresh man
ĠBet ty
en abled
oper ation
Ġintegr ating
ĠLyn n
h it
Ġs ÅĤ
Ġf isher
Ġz ona
hold ing
Ġg ou
sw itch
ç» Ŀ
Ġgift ed
è®¤ ä¸º
w agen
ĠG ym
Ġde ut
ĠP atch
ĠD ial
Ġso othing
k r
ict ure
Ġdefin ite
iÃ «
Ġcy t
Ġaccommod ations
Ġexerc ising
Ġcur tain
Ġpl ed
ĠW arm
ĠSh oes
Ġbo oster
lig a
ĠDes igned
Ġcos as
Ġt ug
ĠBut ler
Ġnutri ent
ag na
? ,
Ġz am
w ent
âĢ¦âĢ¦ âĢ¦âĢ¦
Ġa ka
ĠR out
ĠOr che
ĠMe ga
Ġarg uably
ĠEnh ancement
Ġyou tube
ĠS erve
Ġz ab
cont ains
Ġinstruct ed
Ġmut ations
Ġhome page
ĠP om
Th ird
Ġcomb ust
Ind ust
ter ing
ok a
ĠRe ality
ÅĤ e
Ġlim bs
R oom
MA P
Ġcur tains
Ġperm issions
ĠPur ple
Mult i
ĠProv ider
æĽ °
Ġdisc ourag
ĠJo an
our met
hel ial
Be h
uv re
Ġgran ite
re cht
fl ies
bet ween
G irl
Ġf auc
Ġz al
z ahl
ĠBe e
opt ional
ag ar
Ġch ant
Comm un
Ġgreet ed
ĠImport ant
Ġse ized
ĠB le
Ġst ains
Ġrep roduction
Ġwild erness
av ano
... ,
4 30
ĠH ands
Ġdi arr
Ġdevelopment al
æĿ İ
Ġrein force
ĠMus k
Ġprepar ations
ost ics
ĠRecruit ment
ç» Ī
ĠScript ure
ĠRe in
ĠJo el
b ies
et ric
ut ing
Ġsur render
iz en
ĠFound er
Ġquarter ly
ĠPharm acy
s ervices
C ut
r Ã¨s
Ġk eto
OR S
ĠM aker
Ġt art
åı Ĥ
Ġg Ã©n
ĠPort able
ĠVar ious
Sen ior
Ġcar bs
Ġmon key
Ġpe as
Ġconver ting
ri ad
Ġbure auc
ĠH U
ĠKnow ing
è° ĵ
Ġpe pt
Ġdr illing
Advert isement
Ġse iner
Ġpil ots
ĠN atal
Ġac oustic
Profess ional
Ġt ide
and ro
Ġsp un
Ġpre y
Ġver so
Ġcompet itor
ĠCommon wealth
ĠB au
Ġnorm s
Ġtang ible
ĠL ac
chie f
ĠAw esome
ĠA ware
com ment
dom inal
aur a
D aily
Ġl act
ĠS ans
Ġsm arter
çĦ¶ åĲİ
Ġinteract ing
ĠS ed
Ġkil ometers
Ġm unicip
T re
Ġimpl ied
ĠJ enny
Ġcont rib
Ġassort ment
30 5
Ġce le
ĠMar riage
os er
ĠSt ructure
ĠRe hab
Ġâ Ļ
OT H
ĠCrit ical
N ormal
Ġbl ended
Ġphilosoph ical
Ġb iblical
Ġbu f
ĠÐ ¿
ĠEll en
Ġlandl ord
'] )
ĠEm peror
Ġfest ive
Ġfier ce
aur us
Ġel if
i ad
Ġrecogn izing
Ġdonn Ã©es
Ġhe ck
ĠAl fred
Ġlif es
Ġ elles
ĠUn cle
Ġover time
Ġriv als
ĠR us
Ġpay out
cript ive
iest a
ĠR ear
ĠD ame
ĠOl ive
ic iones
Ġinterf ere
z on
Ġcar riage
Ġmil estone
om ore
Ġrout inely
Ġth Ã©
Stud ent
ĠM atter
ĠSur face
Ġspl ash
Ġ Ø
oy a
ros so
Ġadmin ister
Ġf ax
M G
Ġqu elle
Ġplay off
Ġsyst Ã¨me
an st
en es
A H
Ġn ivel
des c
ous se
ĠD j
ok ia
\" \",
Ġst ata
stell ung
Arg ument
pl ugin
Ġsm ok
ĠSe ed
fl ag
Ġfather s
I ss
ĠSe lection
cf g
Ġinter rog
Ġgall eries
c it
Ġb ible
ĠG C
no ÅĽÄĩ
Ġsuck ed
Ġs way
iss ant
Ġche ating
IN TER
ĠSec urities
do es
nie js
ĠB ears
ors che
Direct ory
é£ Ł
L arge
Ġrevel ation
Ġun le
Im pro
Ġn ort
ĠFl owers
Ġum brella
Ġcon ception
Ġem ission
Ġun aware
let ters
ĠGP U
M OD
ING S
Ġcul inary
W I
Ġstap le
ĠS aints
ĠD IS
Ġcost umes
Ġdepth s
Ġmed io
ĠA ce
Ġr acc
Ġdat os
V ous
h art
ĠNot re
Ġsil icone
ĠSet ting
ĠHug hes
agn etic
Ġby Äĩ
Ġa unque
ĠL or
ĠSaf ari
Ġcm d
ĠRen ew
Ġuns afe
Ġl amb
Ġmuch os
hand ed
ĠOp ening
ann i
ĠSh ore
ab etic
Ġsch olar
h all
ĠBl u
icular ly
h im
ĠTourn ament
ĠLog an
Ġobserv ing
ass is
Ġsuspect s
g ary
Ġincorpor ates
Ġdev ote
Ġbe et
Ġdet er
urg ical
Ġattract ing
Ġconfigur ations
N ULL
ĠR osen
Ġdis pro
dem and
Ġob ed
Ġopt ed
Gr and
ĠLGBT Q
Ġo bey
00 5
Ġmart ial
Ġb iod
29 9
Ġrecher che
Ġgrand parents
Ġhistor ia
it ures
as z
ĠB og
Ġnu ovo
Ġdec ay
G rad
Ġman if
ĠCan ad
ĠElect ronics
Ġpou v
ł ä»¬
Ġf oto
ĠF ahr
Form er
F oot
U na
ĠC af
ĠrÃ© pond
Ġcleans ing
ĠConst ant
Ġthem ed
ĠAud i
ise x
m aterial
ĠB read
Ġne uen
Ġjed en
b ia
Ġbroad ly
ĠMem phis
ĠTO DO
Ġpropri et
Ġresil ient
ĠD uncan
Ġdisc ourse
æĹ ©
r lich
ĠDe ck
ĠSuper ior
Ġtor rent
Ġbe ers
a at
in ters
Ġcoord inated
d ark
ens er
Sar ah
Ġimper ial
ç ¢
Ġman iÃ¨re
ĠMon ster
Ġhe n
Ġprefer ably
ĠB order
ied ad
ring e
Ġcoll apsed
el ig
Ġv ascular
ĠR ico
Ġris en
ĠAb ility
Ġwel ding
Ġm acht
Ġex clude
ĠIn frastructure
u o
Ġm ills
ost i
az Äĥ
ĠAd min
ĠS z
Ġdesp air
Ġf oul
ĠR ust
g ard
Ġh ac
ce ans
ĠO dd
ĠV ienna
Ġmis leading
Ġn arc
Ġbe ard
ĠLaw s
ĠCon sequently
Ġliquid ity
Ġcommission ed
F ar
Ġthr ill
un ion
ĠK ub
ba ar
'' '
Ġmin us
ol an
U ES
$ _
it ives
Ġdisse min
ĠIn it
Ġr anch
alt ung
Ġarom a
arm e
F ort
Ġinc ont
ĠHun ting
Dep artment
ĠC rypto
Ġal gebra
co ins
ĠDes k
Ġinstruct ors
l arge
Inte gr
ch od
ĠCO L
Ġit iner
ĠExper ts
Ġspokes person
Ġpop s
ĠComp are
IF A
dra wn
Ġdr ums
Over view
Ġthe r
Ġas semble
åħ ·
Ġappar atus
j ek
Ġj umps
Ġg az
Ġch oses
ĠAn cient
ãĢĤ ãĢį
Ġprecaut ions
h one
Ġun predict
ĠR af
A sh
Ġro ses
Ġcur ved
Ġcas i
{ },
ç ı
UT C
Ġwip ed
çļĦ æ
Ġles bian
ad itional
Ġj ungle
Ġfirm ware
ĠSt rength
Ġpri ests
Ġâ Ĥ
Ġtrib es
Flo at
al in
ĠT ub
ot ros
oup on
s st
ag i
Ġpat rol
oc ard
Ġstat ute
ĠIde al
Ġn az
ĠE ste
Ġgra vel
Ġconstruct or
Ġundert aking
ĠR ena
Ġsqu ares
Ġec ological
h os
Ġh over
Ġh tml
Ġball oon
ap ache
ĠAss ist
Ġbol t
ĠS ister
ĠAn swers
ĠK iss
Ġhel pless
Ġp ixel
Ġg ol
Ġfin ite
Ġs orrow
Ġcondition er
ĠPlay ing
all oc
Ġterr ace
Pay ment
R eddit
Ġlet z
ĠdÃ© cl
è¿ĺ æĺ¯
Ġp estic
ĠZ oo
Ġtrend y
Ġhost ile
æĸ Ĺ
Ġtour ing
g rund
ĠMont gomery
Requ ired
E arlier
r ace
ĠK E
ĠGr inding
Ġdies en
Ġcomprom ised
ip ur
ĠSal ad
Ġdece ased
W ritten
Ġab ol
ĠAl g
w ould
æľī ä¸Ģ
ĠdÃ© but
ĠST EM
Ġrag az
id ian
Ġis so
Ġbrace let
ĠsÃ© rie
cc oli
Ġinval uable
f mt
ĠC opper
Will iam
D ES
Ġest ado
Ġru ined
Ġn av
ov Ã
at ra
Ġf ren
ould er
Ġburn s
è¯ Ĩ
Ġswe eping
Ġag gress
ĠPol ic
Ġw arr
w ik
sh ift
roph ic
='' /></
ĠD riving
Ġres in
ĠW are
Ġcountry side
ÃŃc ÃŃ
g overnment
22 9
[...]
